{
  "version": "1.0",
  "truncation": null,
  "padding": null,
  "added_tokens": [
    {
      "id": 0,
      "content": "<|pad|>",
      "single_word": false,
      "lstrip": false,
      "rstrip": false,
      "normalized": false,
      "special": true
    },
    {
      "id": 1,
      "content": "<|system|>",
      "single_word": false,
      "lstrip": false,
      "rstrip": false,
      "normalized": false,
      "special": true
    },
    {
      "id": 2,
      "content": "<|user|>",
      "single_word": false,
      "lstrip": false,
      "rstrip": false,
      "normalized": false,
      "special": true
    },
    {
      "id": 3,
      "content": "<|assistant|>",
      "single_word": false,
      "lstrip": false,
      "rstrip": false,
      "normalized": false,
      "special": true
    },
    {
      "id": 4,
      "content": "<|eom|>",
      "single_word": false,
      "lstrip": false,
      "rstrip": false,
      "normalized": false,
      "special": true
    },
    {
      "id": 5,
      "content": "<|eot|>",
      "single_word": false,
      "lstrip": false,
      "rstrip": false,
      "normalized": false,
      "special": true
    }
  ],
  "normalizer": null,
  "pre_tokenizer": {
    "type": "ByteLevel",
    "add_prefix_space": false,
    "trim_offsets": true,
    "use_regex": true
  },
  "post_processor": null,
  "decoder": {
    "type": "ByteLevel",
    "add_prefix_space": true,
    "trim_offsets": true,
    "use_regex": true
  },
  "model": {
    "type": "BPE",
    "dropout": null,
    "unk_token": null,
    "continuing_subword_prefix": null,
    "end_of_word_suffix": null,
    "fuse_unk": false,
    "byte_fallback": false,
    "ignore_merges": false,
    "vocab": {
      "<|pad|>": 0,
      "<|system|>": 1,
      "<|user|>": 2,
      "<|assistant|>": 3,
      "<|eom|>": 4,
      "<|eot|>": 5,
      "!": 6,
      "\"": 7,
      "#": 8,
      "$": 9,
      "%": 10,
      "&": 11,
      "'": 12,
      "(": 13,
      ")": 14,
      "*": 15,
      "+": 16,
      ",": 17,
      "-": 18,
      ".": 19,
      "/": 20,
      "0": 21,
      "1": 22,
      "2": 23,
      "3": 24,
      "4": 25,
      "5": 26,
      "6": 27,
      "7": 28,
      "8": 29,
      "9": 30,
      ":": 31,
      ";": 32,
      "<": 33,
      "=": 34,
      ">": 35,
      "?": 36,
      "@": 37,
      "A": 38,
      "B": 39,
      "C": 40,
      "D": 41,
      "E": 42,
      "F": 43,
      "G": 44,
      "H": 45,
      "I": 46,
      "J": 47,
      "K": 48,
      "L": 49,
      "M": 50,
      "N": 51,
      "O": 52,
      "P": 53,
      "Q": 54,
      "R": 55,
      "S": 56,
      "T": 57,
      "U": 58,
      "V": 59,
      "W": 60,
      "X": 61,
      "Y": 62,
      "Z": 63,
      "[": 64,
      "\\": 65,
      "]": 66,
      "^": 67,
      "_": 68,
      "`": 69,
      "a": 70,
      "b": 71,
      "c": 72,
      "d": 73,
      "e": 74,
      "f": 75,
      "g": 76,
      "h": 77,
      "i": 78,
      "j": 79,
      "k": 80,
      "l": 81,
      "m": 82,
      "n": 83,
      "o": 84,
      "p": 85,
      "q": 86,
      "r": 87,
      "s": 88,
      "t": 89,
      "u": 90,
      "v": 91,
      "w": 92,
      "x": 93,
      "y": 94,
      "z": 95,
      "{": 96,
      "|": 97,
      "}": 98,
      "~": 99,
      "¡": 100,
      "¢": 101,
      "£": 102,
      "¤": 103,
      "¥": 104,
      "¦": 105,
      "§": 106,
      "¨": 107,
      "©": 108,
      "ª": 109,
      "«": 110,
      "¬": 111,
      "®": 112,
      "¯": 113,
      "°": 114,
      "±": 115,
      "²": 116,
      "³": 117,
      "´": 118,
      "µ": 119,
      "¶": 120,
      "·": 121,
      "¸": 122,
      "¹": 123,
      "º": 124,
      "»": 125,
      "¼": 126,
      "½": 127,
      "¾": 128,
      "¿": 129,
      "À": 130,
      "Á": 131,
      "Â": 132,
      "Ã": 133,
      "Ä": 134,
      "Å": 135,
      "Æ": 136,
      "Ç": 137,
      "È": 138,
      "É": 139,
      "Ê": 140,
      "Ë": 141,
      "Ì": 142,
      "Í": 143,
      "Î": 144,
      "Ï": 145,
      "Ð": 146,
      "Ñ": 147,
      "Ò": 148,
      "Ó": 149,
      "Ô": 150,
      "Õ": 151,
      "Ö": 152,
      "×": 153,
      "Ø": 154,
      "Ù": 155,
      "Ú": 156,
      "Û": 157,
      "Ü": 158,
      "Ý": 159,
      "Þ": 160,
      "ß": 161,
      "à": 162,
      "á": 163,
      "â": 164,
      "ã": 165,
      "ä": 166,
      "å": 167,
      "æ": 168,
      "ç": 169,
      "è": 170,
      "é": 171,
      "ê": 172,
      "ë": 173,
      "ì": 174,
      "í": 175,
      "î": 176,
      "ï": 177,
      "ð": 178,
      "ñ": 179,
      "ò": 180,
      "ó": 181,
      "ô": 182,
      "õ": 183,
      "ö": 184,
      "÷": 185,
      "ø": 186,
      "ù": 187,
      "ú": 188,
      "û": 189,
      "ü": 190,
      "ý": 191,
      "þ": 192,
      "ÿ": 193,
      "Ā": 194,
      "ā": 195,
      "Ă": 196,
      "ă": 197,
      "Ą": 198,
      "ą": 199,
      "Ć": 200,
      "ć": 201,
      "Ĉ": 202,
      "ĉ": 203,
      "Ċ": 204,
      "ċ": 205,
      "Č": 206,
      "č": 207,
      "Ď": 208,
      "ď": 209,
      "Đ": 210,
      "đ": 211,
      "Ē": 212,
      "ē": 213,
      "Ĕ": 214,
      "ĕ": 215,
      "Ė": 216,
      "ė": 217,
      "Ę": 218,
      "ę": 219,
      "Ě": 220,
      "ě": 221,
      "Ĝ": 222,
      "ĝ": 223,
      "Ğ": 224,
      "ğ": 225,
      "Ġ": 226,
      "ġ": 227,
      "Ģ": 228,
      "ģ": 229,
      "Ĥ": 230,
      "ĥ": 231,
      "Ħ": 232,
      "ħ": 233,
      "Ĩ": 234,
      "ĩ": 235,
      "Ī": 236,
      "ī": 237,
      "Ĭ": 238,
      "ĭ": 239,
      "Į": 240,
      "į": 241,
      "İ": 242,
      "ı": 243,
      "Ĳ": 244,
      "ĳ": 245,
      "Ĵ": 246,
      "ĵ": 247,
      "Ķ": 248,
      "ķ": 249,
      "ĸ": 250,
      "Ĺ": 251,
      "ĺ": 252,
      "Ļ": 253,
      "ļ": 254,
      "Ľ": 255,
      "ľ": 256,
      "Ŀ": 257,
      "ŀ": 258,
      "Ł": 259,
      "ł": 260,
      "Ń": 261,
      "Ġt": 262,
      "Ġa": 263,
      "he": 264,
      "in": 265,
      "re": 266,
      "Ġthe": 267,
      "on": 268,
      "er": 269,
      "Ġo": 270,
      "at": 271,
      "Ġs": 272,
      "en": 273,
      "Ġc": 274,
      "Ġw": 275,
      "es": 276,
      "is": 277,
      "nd": 278,
      "it": 279,
      "or": 280,
      "Ġp": 281,
      "al": 282,
      "ed": 283,
      "Ġb": 284,
      "an": 285,
      "Ġof": 286,
      "Ġf": 287,
      "ing": 288,
      "Ġin": 289,
      "ar": 290,
      "ou": 291,
      "Ġm": 292,
      "Ġand": 293,
      "Ġto": 294,
      "ic": 295,
      "Ġd": 296,
      "ion": 297,
      "le": 298,
      "ro": 299,
      "as": 300,
      "Ġh": 301,
      "Ġth": 302,
      "ent": 303,
      "ct": 304,
      "Ġe": 305,
      "il": 306,
      "Ġre": 307,
      "om": 308,
      "ve": 309,
      "Ġl": 310,
      "st": 311,
      "Ġn": 312,
      "ly": 313,
      "âĢ": 314,
      "Ġbe": 315,
      "Ġis": 316,
      "ĠT": 317,
      "se": 318,
      "ol": 319,
      "Ġg": 320,
      "ation": 321,
      "im": 322,
      "id": 323,
      "et": 324,
      "ut": 325,
      "ur": 326,
      "ce": 327,
      "ot": 328,
      "ra": 329,
      "ow": 330,
      "ch": 331,
      "ĠA": 332,
      "Ġfor": 333,
      "ig": 334,
      "ĠS": 335,
      "Ġthat": 336,
      "Ġu": 337,
      "Ġon": 338,
      "Ġst": 339,
      "ver": 340,
      "ĠC": 341,
      "ĠI": 342,
      "ir": 343,
      "Ġy": 344,
      "ul": 345,
      "ay": 346,
      "am": 347,
      "Ġas": 348,
      "ith": 349,
      "el": 350,
      "ad": 351,
      "her": 352,
      "Ġpro": 353,
      "Ġare": 354,
      "Ġcon": 355,
      "Ġan": 356,
      "Ġwith": 357,
      "Ġwh": 358,
      "if": 359,
      "Ġit": 360,
      "Ġor": 361,
      "Ġal": 362,
      "Ġyou": 363,
      "ter": 364,
      "od": 365,
      "ĠM": 366,
      "Ġ(": 367,
      "ĠThe": 368,
      "ment": 369,
      "ge": 370,
      "ĠP": 371,
      "Ġ1": 372,
      "th": 373,
      "ate": 374,
      "op": 375,
      "ist": 376,
      "ers": 377,
      "Ġde": 378,
      "ies": 379,
      "ab": 380,
      "ill": 381,
      "Ġhe": 382,
      "ess": 383,
      "ĠB": 384,
      "Ġex": 385,
      "us": 386,
      "Ġwe": 387,
      "ect": 388,
      "ore": 389,
      "Ġsu": 390,
      "Ġcom": 391,
      "âĢĻ": 392,
      "ity": 393,
      "est": 394,
      "ive": 395,
      "res": 396,
      "Ġha": 397,
      "ac": 398,
      "rom": 399,
      "ld": 400,
      "ĠH": 401,
      "os": 402,
      "um": 403,
      "Ġv": 404,
      "ke": 405,
      "Ġby": 406,
      "em": 407,
      "ant": 408,
      "iv": 409,
      "qu": 410,
      "ain": 411,
      "Ġat": 412,
      "nt": 413,
      "ĠW": 414,
      "pp": 415,
      "Ġwas": 416,
      "ĠD": 417,
      "igh": 418,
      "ud": 419,
      "ĠE": 420,
      "Ġfrom": 421,
      "Ġcan": 422,
      "and": 423,
      "oc": 424,
      "Ġch": 425,
      "Ġr": 426,
      "ĠR": 427,
      "ort": 428,
      "Ġne": 429,
      "ĠF": 430,
      "Ġse": 431,
      "ial": 432,
      "Ġ2": 433,
      "ure": 434,
      "ĠâĢ": 435,
      "Ġnot": 436,
      "un": 437,
      "art": 438,
      "ĠN": 439,
      "Ġle": 440,
      "ical": 441,
      "ĠG": 442,
      "Ġhave": 443,
      "ri": 444,
      "ĠL": 445,
      "Ġsh": 446,
      "og": 447,
      "Ġen": 448,
      "Ġthis": 449,
      "Ġsp": 450,
      "00": 451,
      "pt": 452,
      "ight": 453,
      "rou": 454,
      "Ġab": 455,
      "red": 456,
      "ich": 457,
      "all": 458,
      "Ġwor": 459,
      "ther": 460,
      "ould": 461,
      "The": 462,
      "gh": 463,
      "ions": 464,
      "our": 465,
      "ome": 466,
      "ost": 467,
      "du": 468,
      "ated": 469,
      "Ġim": 470,
      "Ġus": 471,
      "ine": 472,
      "per": 473,
      "out": 474,
      "ard": 475,
      "Ġpl": 476,
      "ag": 477,
      "Ġtheir": 478,
      "ide": 479,
      "ell": 480,
      "ff": 481,
      "act": 482,
      "ans": 483,
      "ĠO": 484,
      "Ġint": 485,
      "ast": 486,
      "pl": 487,
      "ear": 488,
      "age": 489,
      "ust": 490,
      "ĠJ": 491,
      "Ġwhich": 492,
      "ak": 493,
      "Ġk": 494,
      "ous": 495,
      "Ġwhe": 496,
      "ec": 497,
      "Ġthey": 498,
      "ĠU": 499,
      "iz": 500,
      "Ġyour": 501,
      "Ġall": 502,
      "ood": 503,
      "Ġcont": 504,
      "ĠIn": 505,
      "Ġad": 506,
      "Ġinc": 507,
      "ult": 508,
      "ib": 509,
      "Ġwill": 510,
      "âĢĿ": 511,
      "cc": 512,
      "end": 513,
      "ru": 514,
      "ap": 515,
      "Ġdis": 516,
      "Ġmore": 517,
      "ia": 518,
      "ong": 519,
      "Ġcomp": 520,
      "ip": 521,
      "ations": 522,
      "ew": 523,
      "Ġres": 524,
      "Ġhas": 525,
      "vel": 526,
      "ere": 527,
      "so": 528,
      "orm": 529,
      "ary": 530,
      "Ġdo": 531,
      "ater": 532,
      "ĠTh": 533,
      "Ġother": 534,
      "ild": 535,
      "Ġcl": 536,
      "Ġwere": 537,
      "are": 538,
      "able": 539,
      "Ġman": 540,
      "ence": 541,
      "Ġbut": 542,
      "ual": 543,
      "ks": 544,
      "ry": 545,
      "ĠâĢľ": 546,
      "Ġper": 547,
      "ind": 548,
      "ance": 549,
      "Ġone": 550,
      "ep": 551,
      "ach": 552,
      "Ġalso": 553,
      "Ġte": 554,
      "Ġimp": 555,
      "Ġme": 556,
      "ents": 557,
      "'s": 558,
      "ose": 559,
      "reat": 560,
      "Ġ19": 561,
      "ign": 562,
      "ake": 563,
      "ass": 564,
      "ress": 565,
      "ase": 566,
      "ition": 567,
      "Ġj": 568,
      "au": 569,
      "av": 570,
      "Ġso": 571,
      "ction": 572,
      "ice": 573,
      "ber": 574,
      "Ġout": 575,
      "Ġun": 576,
      "very": 577,
      "Ġpart": 578,
      "Ġapp": 579,
      "Ġar": 580,
      "ime": 581,
      "ish": 582,
      "ord": 583,
      "Ġabout": 584,
      "one": 585,
      "Ġev": 586,
      "ens": 587,
      "ount": 588,
      "ory": 589,
      "ok": 590,
      "ace": 591,
      "ame": 592,
      "Ġwho": 593,
      "ire": 594,
      "Ġstud": 595,
      "ĠSt": 596,
      ").": 597,
      "Ġhis": 598,
      "ack": 599,
      "Ġinf": 600,
      "ub": 601,
      "Ġpe": 602,
      "ĠK": 603,
      "Ġsy": 604,
      "ors": 605,
      "Ġsc": 606,
      "Ġthem": 607,
      "Ġcomm": 608,
      "ue": 609,
      "ite": 610,
      "ang": 611,
      "ike": 612,
      "ree": 613,
      "now": 614,
      "ces": 615,
      "ound": 616,
      "low": 617,
      "Ġ\"": 618,
      "ĠIt": 619,
      "Ġup": 620,
      "Ġbec": 621,
      "olog": 622,
      "Ġpre": 623,
      "ile": 624,
      "Ġthan": 625,
      "Ġmay": 626,
      "ric": 627,
      "Ġqu": 628,
      "ie": 629,
      "ĠCh": 630,
      "Ġsome": 631,
      "iff": 632,
      "ian": 633,
      "Ġyear": 634,
      "Ġrec": 635,
      "ople": 636,
      "Ġbeen": 637,
      "ates": 638,
      "ays": 639,
      "ail": 640,
      "Ġthere": 641,
      "nder": 642,
      "Ġwhen": 643,
      "ings": 644,
      "mer": 645,
      "Ġag": 646,
      "ough": 647,
      "Ġits": 648,
      "Ġgo": 649,
      "Ġ20": 650,
      "Ġinto": 651,
      "ph": 652,
      "Ġtime": 653,
      "Ġtra": 654,
      "ren": 655,
      "rit": 656,
      "vers": 657,
      "Ġwork": 658,
      "ĠV": 659,
      "ons": 660,
      "te": 661,
      "Ġthese": 662,
      "ĠThis": 663,
      "Ġover": 664,
      "erv": 665,
      "Ġhad": 666,
      "rough": 667,
      "lud": 668,
      "ally": 669,
      "Ġpeople": 670,
      "Ġhow": 671,
      "Ġdiff": 672,
      "ond": 673,
      "Ġtr": 674,
      "ove": 675,
      "Ġcons": 676,
      "ms": 677,
      "tern": 678,
      "ause": 679,
      "Ġ3": 680,
      "Ġra": 681,
      "Ġcol": 682,
      "Ġour": 683,
      "ll": 684,
      "Ġuse": 685,
      "Ġro": 686,
      "ific": 687,
      "Ġact": 688,
      "Ġbet": 689,
      "we": 690,
      "int": 691,
      "lic": 692,
      "Ġmost": 693,
      "irst": 694,
      "Ġknow": 695,
      "lect": 696,
      "ments": 697,
      "Ġunder": 698,
      "Ġsa": 699,
      "Ġdes": 700,
      "ys": 701,
      "Ġwould": 702,
      "Ġlike": 703,
      "ities": 704,
      "ning": 705,
      "Ġbl": 706,
      "ious": 707,
      "ject": 708,
      "ook": 709,
      "alth": 710,
      "Ġacc": 711,
      "row": 712,
      "les": 713,
      "Ġtw": 714,
      "ĠY": 715,
      "stem": 716,
      "velop": 717,
      "Ġnew": 718,
      "Ġsuch": 719,
      "Ġrel": 720,
      "Ġneed": 721,
      "Ġrep": 722,
      "ational": 723,
      "Ġif": 724,
      "ffect": 725,
      "Ġinclud": 726,
      "ient": 727,
      "Ġany": 728,
      "ob": 729,
      "Ġchild": 730,
      "Ġgen": 731,
      "ative": 732,
      "hed": 733,
      "Ġhel": 734,
      "ple": 735,
      "ular": 736,
      "cess": 737,
      "Ġonly": 738,
      "Ġprov": 739,
      "Ġwhat": 740,
      "Ġpr": 741,
      "Ġno": 742,
      "Ġused": 743,
      "ced": 744,
      "Ġhelp": 745,
      "),": 746,
      "ating": 747,
      "yp": 748,
      "Ġph": 749,
      "Ġprodu": 750,
      "ov": 751,
      "ĠUn": 752,
      "Ġmany": 753,
      "Ġfirst": 754,
      "Ġthrough": 755,
      "ool": 756,
      "Ġoff": 757,
      "Ġind": 758,
      "Ġam": 759,
      "iet": 760,
      "Ġdevelop": 761,
      "oss": 762,
      "fter": 763,
      "uc": 764,
      "Ġspec": 765,
      "erm": 766,
      "Ġfe": 767,
      "ise": 768,
      "Ġreg": 769,
      "Ġpo": 770,
      "ark": 771,
      "round": 772,
      "ath": 773,
      "Ġem": 774,
      "ics": 775,
      "Ġac": 776,
      "rib": 777,
      "uring": 778,
      "ts": 779,
      "Ġtwo": 780,
      "ne": 781,
      "Ġexp": 782,
      "Ġsystem": 783,
      "ful": 784,
      "ink": 785,
      "hen": 786,
      "iss": 787,
      "old": 788,
      "ied": 789,
      "Ġob": 790,
      "eth": 791,
      "ility": 792,
      "Ġdiffere": 793,
      "oth": 794,
      "Ġdec": 795,
      "Ġatt": 796,
      "Ġass": 797,
      "ible": 798,
      "ased": 799,
      "Ġsur": 800,
      "als": 801,
      "rop": 802,
      "Ġadd": 803,
      "ert": 804,
      "ĠâĢĵ": 805,
      "ten": 806,
      "Ġ201": 807,
      "Ġ-": 808,
      "ange": 809,
      "ife": 810,
      "ĠHe": 811,
      "ng": 812,
      "arch": 813,
      "Ġshould": 814,
      "aw": 815,
      "In": 816,
      "Ġsupp": 817,
      "fore": 818,
      "ower": 819,
      "Ġ200": 820,
      "Ġwell": 821,
      "ures": 822,
      "ween": 823,
      "ram": 824,
      "Ġfl": 825,
      "Ġyears": 826,
      "Ġrem": 827,
      "ble": 828,
      "ract": 829,
      "Ġinv": 830,
      "sel": 831,
      "ade": 832,
      "own": 833,
      "Ġco": 834,
      "Ġwater": 835,
      "Ġ4": 836,
      "Ġsub": 837,
      "its": 838,
      "ution": 839,
      "gan": 840,
      "Ġcould": 841,
      "Ġbetween": 842,
      "Ġsm": 843,
      "Ġwhere": 844,
      "cy": 845,
      "hes": 846,
      "Ġhigh": 847,
      "Ġhealth": 848,
      "Ġpres": 849,
      "ily": 850,
      "wn": 851,
      "ick": 852,
      "Ġtrans": 853,
      "Ġ5": 854,
      "uch": 855,
      "Ġmake": 856,
      "Ġear": 857,
      "ident": 858,
      "ever": 859,
      "land": 860,
      "Ġget": 861,
      "ĠAs": 862,
      "Ġbu": 863,
      "xt": 864,
      "Ġpers": 865,
      "form": 866,
      "ants": 867,
      "ited": 868,
      "Ġher": 869,
      "Ġrese": 870,
      "Ġinter": 871,
      "Ġimport": 872,
      "ology": 873,
      "ting": 874,
      "chn": 875,
      "ivers": 876,
      "Ġpol": 877,
      "Ġnum": 878,
      "ural": 879,
      "ience": 880,
      "Ġmod": 881,
      "Ġform": 882,
      "Ġdisc": 883,
      "Ġinst": 884,
      "meric": 885,
      "chool": 886,
      "Ġexam": 887,
      "ron": 888,
      "ines": 889,
      "ists": 890,
      "Ġmed": 891,
      "Ġfound": 892,
      "Ġlear": 893,
      "ef": 894,
      "ata": 895,
      "ism": 896,
      "ict": 897,
      "ually": 898,
      "urn": 899,
      "ins": 900,
      "Ġlar": 901,
      "oy": 902,
      "Ġvery": 903,
      "Ġlong": 904,
      "hat": 905,
      "Ġcent": 906,
      "Ġafter": 907,
      "Ġthen": 908,
      "Ġinform": 909,
      "Ġeven": 910,
      "Ġbecause": 911,
      "gy": 912,
      "Ġdifferent": 913,
      "Ġworld": 914,
      "Ġincre": 915,
      "Ġsim": 916,
      "Ġexper": 917,
      "Ġjust": 918,
      "Ġeffect": 919,
      "ft": 920,
      "Ġhum": 921,
      "other": 922,
      "cept": 923,
      "Ġcount": 924,
      "Ġway": 925,
      "ature": 926,
      "Ġdet": 927,
      "ness": 928,
      "Ġed": 929,
      "Ġ18": 930,
      "Ġcar": 931,
      "ically": 932,
      "get": 933,
      "Ġtyp": 934,
      "Ġsee": 935,
      "aking": 936,
      "Ġref": 937,
      "Ġfol": 938,
      "ĠAmeric": 939,
      "vent": 940,
      "Ġthose": 941,
      "Ġpub": 942,
      "Ġresp": 943,
      "ives": 944,
      "Ġke": 945,
      "Ġvar": 946,
      "ck": 947,
      "Ġcall": 948,
      "cer": 949,
      "Ġgener": 950,
      "Ġsign": 951,
      "ork": 952,
      "Ġsoc": 953,
      "Ġsec": 954,
      "con": 955,
      "iew": 956,
      "Ġprog": 957,
      "tle": 958,
      "Ġevery": 959,
      "omm": 960,
      "Ġchildren": 961,
      "Ġext": 962,
      "Ġloc": 963,
      "ues": 964,
      "Ġsaid": 965,
      "ps": 966,
      "arm": 967,
      ".âĢĿ": 968,
      "Ġbeing": 969,
      "ds": 970,
      "ases": 971,
      "Ġprocess": 972,
      "Ġfact": 973,
      "Ġeach": 974,
      "ros": 975,
      "led": 976,
      "Ġset": 977,
      "ruct": 978,
      "Ġpartic": 979,
      "Ġpat": 980,
      "Ġresult": 981,
      "vern": 982,
      "Ġca": 983,
      "Ġlife": 984,
      "ved": 985,
      "Ġimportant": 986,
      "Ġmon": 987,
      "iron": 988,
      "Ġgra": 989,
      "Ġfam": 990,
      "Th": 991,
      "ages": 992,
      "Ġdist": 993,
      "ĠAl": 994,
      "Ġrequ": 995,
      "Ġmuch": 996,
      "Ġinformation": 997,
      "Ġtechn": 998,
      "Ġmy": 999,
      "ather": 1000,
      "Ġcre": 1001,
      "Ġshe": 1002,
      "ody": 1003,
      "Ġdef": 1004,
      "cent": 1005,
      "Ġcommun": 1006,
      "ĠWe": 1007,
      "Ġduring": 1008,
      "Ġown": 1009,
      "Ġart": 1010,
      "Ġfollow": 1011,
      "ward": 1012,
      "ĠPro": 1013,
      "Ġdep": 1014,
      "Ġent": 1015,
      "imes": 1016,
      "Ġread": 1017,
      "ized": 1018,
      "ĠThey": 1019,
      "Ġfood": 1020,
      "Ġsame": 1021,
      "io": 1022,
      "Ġaut": 1023,
      "..": 1024,
      "ices": 1025,
      "Ġlevel": 1026,
      "Ġlead": 1027,
      "Ġstudents": 1028,
      "gg": 1029,
      "Ġright": 1030,
      "Ġmade": 1031,
      "||": 1032,
      "ection": 1033,
      "any": 1034,
      "Ġdoes": 1035,
      "Ġins": 1036,
      "hip": 1037,
      "ĠRe": 1038,
      "Ġdata": 1039,
      "Ġend": 1040,
      "Ġ6": 1041,
      "Ġsk": 1042,
      "Ġcur": 1043,
      "ize": 1044,
      "Ġstudy": 1045,
      "ted": 1046,
      "Ġfind": 1047,
      "Ġgrow": 1048,
      "Ġperson": 1049,
      "Ġstr": 1050,
      "und": 1051,
      "Ġmin": 1052,
      "ĠIf": 1053,
      "Ġproble": 1054,
      "Ġboth": 1055,
      "Ġpop": 1056,
      "Ġback": 1057,
      "Ġgood": 1058,
      "the": 1059,
      "Ġgrou": 1060,
      "ĠFor": 1061,
      "ĠAr": 1062,
      "Ġche": 1063,
      "Ġav": 1064,
      "ĠAn": 1065,
      "Ġbefore": 1066,
      "ars": 1067,
      "ale": 1068,
      "inal": 1069,
      "20": 1070,
      "Ġshow": 1071,
      "Ġexpl": 1072,
      "viron": 1073,
      "ĠCon": 1074,
      "Ġsmall": 1075,
      "iversity": 1076,
      "ince": 1077,
      "Ġusing": 1078,
      "Ġhist": 1079,
      "Ġschool": 1080,
      "Ġagain": 1081,
      "Ġcomple": 1082,
      "Ġdi": 1083,
      "ty": 1084,
      "000": 1085,
      "ially": 1086,
      "Ġprot": 1087,
      "Ġbo": 1088,
      "ality": 1089,
      ".,": 1090,
      "omen": 1091,
      "stand": 1092,
      "Ġmain": 1093,
      "iel": 1094,
      "ined": 1095,
      "imate": 1096,
      "der": 1097,
      "rol": 1098,
      "Ġcor": 1099,
      "19": 1100,
      "nce": 1101,
      "read": 1102,
      "Ġgl": 1103,
      "Ġtest": 1104,
      "ax": 1105,
      "ĠHow": 1106,
      "Ġtreat": 1107,
      "ivid": 1108,
      "Ġoften": 1109,
      "Ġwhile": 1110,
      "Ġstate": 1111,
      "ished": 1112,
      "Ġval": 1113,
      "Ġposs": 1114,
      "ĠNew": 1115,
      "Ġsol": 1116,
      "Ġless": 1117,
      "irect": 1118,
      "Ġlit": 1119,
      "ix": 1120,
      "ute": 1121,
      "oh": 1122,
      "Ġris": 1123,
      "Ġday": 1124,
      "ral": 1125,
      "Ġnow": 1126,
      "ĠInd": 1127,
      "ury": 1128,
      "ien": 1129,
      "ran": 1130,
      "ock": 1131,
      "ergy": 1132,
      "Ġnumber": 1133,
      "Ġhim": 1134,
      "Ġdise": 1135,
      "Ġserv": 1136,
      "Ġtake": 1137,
      "ulation": 1138,
      "Ġocc": 1139,
      "ĠSp": 1140,
      "Ġprovid": 1141,
      "Ġpower": 1142,
      "akes": 1143,
      "Ġhuman": 1144,
      "Ġcell": 1145,
      "Ġvis": 1146,
      "Ġresearch": 1147,
      "ier": 1148,
      "ex": 1149,
      "iety": 1150,
      "ered": 1151,
      "Ġfun": 1152,
      "Ġchar": 1153,
      "vironment": 1154,
      "Ġmem": 1155,
      "Ġorgan": 1156,
      "Ġsupport": 1157,
      "dition": 1158,
      "Ġthree": 1159,
      "Ġactiv": 1160,
      "iving": 1161,
      "Ġest": 1162,
      "Ġ10": 1163,
      "up": 1164,
      "Ġdesign": 1165,
      "Ġmust": 1166,
      "Ġdown": 1167,
      "ters": 1168,
      "ven": 1169,
      "Ġbody": 1170,
      "iqu": 1171,
      "air": 1172,
      "ves": 1173,
      "Ġaround": 1174,
      "uss": 1175,
      "cl": 1176,
      "Ġelect": 1177,
      "Ġclass": 1178,
      "ital": 1179,
      "hers": 1180,
      "ĠSc": 1181,
      "Ġlook": 1182,
      "Ġgovern": 1183,
      "Ġhand": 1184,
      "Ġland": 1185,
      "Ġredu": 1186,
      "aj": 1187,
      "Ġpoint": 1188,
      "Ġdid": 1189,
      "Ġstart": 1190,
      "Ġcommon": 1191,
      "Ġbel": 1192,
      "ger": 1193,
      "Ġgreat": 1194,
      "âĢĶ": 1195,
      "Ġ7": 1196,
      "day": 1197,
      "Ġser": 1198,
      "Ġconf": 1199,
      "ĠBut": 1200,
      "rent": 1201,
      "ouse": 1202,
      "Ġplan": 1203,
      "ving": 1204,
      "ah": 1205,
      "ains": 1206,
      "Ġcontin": 1207,
      "ave": 1208,
      "self": 1209,
      "Ġlarge": 1210,
      "Ġexample": 1211,
      "Ġret": 1212,
      "Ġreport": 1213,
      "This": 1214,
      "ĠIs": 1215,
      "ross": 1216,
      "Ġcle": 1217,
      "Ġincluding": 1218,
      "Ġcour": 1219,
      "itions": 1220,
      "gen": 1221,
      "ared": 1222,
      ",âĢĿ": 1223,
      "Ġop": 1224,
      "Ġthough": 1225,
      "com": 1226,
      "Ġconst": 1227,
      "ium": 1228,
      "acter": 1229,
      "ring": 1230,
      "Ġ8": 1231,
      "Ġallow": 1232,
      "ee": 1233,
      "Ġcalled": 1234,
      "ner": 1235,
      "Ġpublic": 1236,
      "outh": 1237,
      "Ġcare": 1238,
      "ull": 1239,
      "ional": 1240,
      "way": 1241,
      "ash": 1242,
      "Ġmet": 1243,
      "Ġbuild": 1244,
      "eg": 1245,
      "Ġeduc": 1246,
      "Ġsom": 1247,
      "rain": 1248,
      "orn": 1249,
      "ĠThere": 1250,
      "Ġstill": 1251,
      "Ġunderstand": 1252,
      "Ġwrit": 1253,
      "Ġadv": 1254,
      "Ġequ": 1255,
      "Ġknown": 1256,
      "iver": 1257,
      "els": 1258,
      "iod": 1259,
      "Ġappro": 1260,
      "ĠAnd": 1261,
      "iven": 1262,
      "esp": 1263,
      "aterial": 1264,
      "âĢĵ": 1265,
      "Ġpract": 1266,
      "osed": 1267,
      "Ġide": 1268,
      "conom": 1269,
      "âĢľ": 1270,
      "Ġthink": 1271,
      "10": 1272,
      "erest": 1273,
      "lish": 1274,
      "ĠYou": 1275,
      "Ġgu": 1276,
      "ected": 1277,
      ".\"": 1278,
      "Ġgre": 1279,
      "inc": 1280,
      "Ġfew": 1281,
      "oms": 1282,
      "ired": 1283,
      "de": 1284,
      "ĠâĢĺ": 1285,
      "Ġquest": 1286,
      "ination": 1287,
      "Ġbeh": 1288,
      "oci": 1289,
      "ividual": 1290,
      "Ġeas": 1291,
      "ived": 1292,
      "ries": 1293,
      "itive": 1294,
      "Ġmat": 1295,
      "bers": 1296,
      "Ġplace": 1297,
      "ids": 1298,
      "Ġmight": 1299,
      "ense": 1300,
      "Ġstand": 1301,
      "Ġdr": 1302,
      "oun": 1303,
      "Ġ9": 1304,
      "ĠEng": 1305,
      "Ġwithout": 1306,
      "Ġchang": 1307,
      "ential": 1308,
      "Ġproduct": 1309,
      "ization": 1310,
      "eral": 1311,
      "Ġ199": 1312,
      "ĠWh": 1313,
      "Ġdem": 1314,
      "Ġiss": 1315,
      "ĠThese": 1316,
      "tt": 1317,
      "ethod": 1318,
      "Ġcaus": 1319,
      "ason": 1320,
      "Ġenvironment": 1321,
      "ources": 1322,
      "Ġwithin": 1323,
      "ering": 1324,
      "ording": 1325,
      "Ġphys": 1326,
      "ior": 1327,
      "ertain": 1328,
      "ians": 1329,
      "ĠUniversity": 1330,
      "Ġtem": 1331,
      "raph": 1332,
      "me": 1333,
      "Ġchange": 1334,
      "Ġcap": 1335,
      "Ġenergy": 1336,
      "Ġlearn": 1337,
      "Ġwant": 1338,
      "Ġdirect": 1339,
      "Ġsocial": 1340,
      "ption": 1341,
      "Ġpresent": 1342,
      "Ġsym": 1343,
      "Ġplay": 1344,
      "man": 1345,
      "Ġident": 1346,
      "ĠDe": 1347,
      "ffic": 1348,
      "Ġpur": 1349,
      "Ġmaterial": 1350,
      "line": 1351,
      "Ġair": 1352,
      "__": 1353,
      "ration": 1354,
      "Ġindividual": 1355,
      "Ġlaw": 1356,
      "illion": 1357,
      "Ġbre": 1358,
      "orth": 1359,
      "Ġanother": 1360,
      "Ġsl": 1361,
      "eng": 1362,
      "less": 1363,
      "Ġdon": 1364,
      "ability": 1365,
      "Ġpass": 1366,
      "Ġarea": 1367,
      "Ġimpro": 1368,
      "Ġdevelopment": 1369,
      "angu": 1370,
      "Ġdisease": 1371,
      "Ġpot": 1372,
      "Ġpos": 1373,
      "ĠAmerican": 1374,
      "Ġimm": 1375,
      "alk": 1376,
      "Ġproject": 1377,
      "Ġve": 1378,
      "Ġben": 1379,
      "iness": 1380,
      "Ġprof": 1381,
      "Ġwomen": 1382,
      "ajor": 1383,
      "Ġlight": 1384,
      "Ġhome": 1385,
      "Ġdesc": 1386,
      "Ġ&": 1387,
      "Ġsit": 1388,
      "ets": 1389,
      "to": 1390,
      "ug": 1391,
      "ccess": 1392,
      "arent": 1393,
      "ton": 1394,
      "Ġinterest": 1395,
      "Ġmus": 1396,
      "Ġrest": 1397,
      "Ġinclude": 1398,
      "agn": 1399,
      "ris": 1400,
      "Ġrisk": 1401,
      "It": 1402,
      "ified": 1403,
      "Ġbas": 1404,
      "ental": 1405,
      "erc": 1406,
      "Ġcult": 1407,
      "Ġeng": 1408,
      "ained": 1409,
      "Ġcontrol": 1410,
      "ats": 1411,
      "bs": 1412,
      "Ġbest": 1413,
      "Ġant": 1414,
      "Ġbelie": 1415,
      "Ġeconom": 1416,
      "ological": 1417,
      "ify": 1418,
      "Ġet": 1419,
      "Ġgovernment": 1420,
      "ield": 1421,
      "rodu": 1422,
      "rist": 1423,
      "Ġagainst": 1424,
      "Ġmethod": 1425,
      "Ġleg": 1426,
      "atic": 1427,
      "ĠAd": 1428,
      "ently": 1429,
      "lished": 1430,
      "Ġmeas": 1431,
      "Ġopp": 1432,
      "Ġblood": 1433,
      "az": 1434,
      "Ġsever": 1435,
      "Ġearly": 1436,
      "Ġwar": 1437,
      "'t": 1438,
      "Ġpar": 1439,
      "hor": 1440,
      "ways": 1441,
      "Ġanal": 1442,
      "Ġold": 1443,
      "cing": 1444,
      "Ġmil": 1445,
      "Ġbecome": 1446,
      "Ġpain": 1447,
      "ik": 1448,
      "Ġlow": 1449,
      "Ġmark": 1450,
      "ern": 1451,
      "ĠPh": 1452,
      "ision": 1453,
      "Ġele": 1454,
      "ĠSh": 1455,
      "Ġprogram": 1456,
      "arc": 1457,
      "Ġbetter": 1458,
      "Ġmove": 1459,
      "Ġproper": 1460,
      "atural": 1461,
      "Ġsecond": 1462,
      "gin": 1463,
      "ead": 1464,
      "ĠHowever": 1465,
      "Ġorder": 1466,
      "Ġanim": 1467,
      "Ġfamily": 1468,
      "Ġgroup": 1469,
      "ission": 1470,
      "ining": 1471,
      "here": 1472,
      "Ġmeans": 1473,
      "Ġlast": 1474,
      "Ġreal": 1475,
      "ank": 1476,
      "Ġprovide": 1477,
      "Ġoper": 1478,
      "Ġtoo": 1479,
      "Ġdev": 1480,
      "ource": 1481,
      "Ġmajor": 1482,
      "Ġhere": 1483,
      "ories": 1484,
      "rap": 1485,
      "Ġter": 1486,
      "amp": 1487,
      "Ġunt": 1488,
      "Ġparticular": 1489,
      "ider": 1490,
      "Ġpercent": 1491,
      "Ġfin": 1492,
      "ention": 1493,
      "Ġkeep": 1494,
      "Ġfore": 1495,
      "ĠUnited": 1496,
      "Ġhistory": 1497,
      "ples": 1498,
      "use": 1499,
      "ware": 1500,
      "Ġsaf": 1501,
      "Ġoccur": 1502,
      "Ġtre": 1503,
      "icle": 1504,
      "ote": 1505,
      "ards": 1506,
      "Ġtop": 1507,
      "ills": 1508,
      "Ġpossible": 1509,
      "Ġcurrent": 1510,
      "idence": 1511,
      "eed": 1512,
      "irc": 1513,
      "ĠEx": 1514,
      "Ġperiod": 1515,
      "Ġindu": 1516,
      "Ġnear": 1517,
      "Ġcause": 1518,
      "Ġsay": 1519,
      "ĠâĢĶ": 1520,
      "Ġaddition": 1521,
      "Ġavail": 1522,
      "Ġorig": 1523,
      "ĠRes": 1524,
      "ĠCl": 1525,
      "Ġseveral": 1526,
      "ĠCol": 1527,
      "Ġlearning": 1528,
      "pect": 1529,
      "par": 1530,
      "Ġperform": 1531,
      "ret": 1532,
      "oid": 1533,
      "ients": 1534,
      "Ġ15": 1535,
      "ĠPl": 1536,
      "Ġhig": 1537,
      "Ġable": 1538,
      "ĠCan": 1539,
      "view": 1540,
      "Ġsince": 1541,
      "Ġinvol": 1542,
      "ĠZ": 1543,
      "ĠWhen": 1544,
      "ograph": 1545,
      "Ġmar": 1546,
      "Ġopen": 1547,
      "Ġscient": 1548,
      "ogn": 1549,
      "Ġbenef": 1550,
      "Ġhapp": 1551,
      "Ġbus": 1552,
      "Ġinfl": 1553,
      "Ġlangu": 1554,
      "ina": 1555,
      "Ġnon": 1556,
      "Ġthings": 1557,
      "ator": 1558,
      "Ġmen": 1559,
      "Ġspecies": 1560,
      "Ġ[": 1561,
      "Ġprom": 1562,
      "Ġel": 1563,
      "Ġareas": 1564,
      "ĠComm": 1565,
      "Ġfre": 1566,
      "ĠSe": 1567,
      "urop": 1568,
      "though": 1569,
      "Ġaffect": 1570,
      "Ġmean": 1571,
      "Ġbased": 1572,
      "Ġlim": 1573,
      "Ġothers": 1574,
      "port": 1575,
      "ĠAt": 1576,
      "ames": 1577,
      "Ġobject": 1578,
      "Ġfeel": 1579,
      "ploy": 1580,
      "Ġcal": 1581,
      "What": 1582,
      "Ġtreatment": 1583,
      "Ġsays": 1584,
      "sy": 1585,
      "omp": 1586,
      "ĠTo": 1587,
      "Ġname": 1588,
      "Ġamong": 1589,
      "Ġplant": 1590,
      "Ġfollowing": 1591,
      "ĠStates": 1592,
      "ole": 1593,
      "Ġcountry": 1594,
      "ilar": 1595,
      "Ġfour": 1596,
      "ĠQ": 1597,
      "Ġcase": 1598,
      "Ġcertain": 1599,
      "ended": 1600,
      "Ġlo": 1601,
      "une": 1602,
      "osp": 1603,
      "Ġsignific": 1604,
      "Ġconn": 1605,
      "Ġcost": 1606,
      "Ġtimes": 1607,
      "Ġaccess": 1608,
      "be": 1609,
      "elf": 1610,
      "of": 1611,
      "ĠGod": 1612,
      "Ġcond": 1613,
      "Ġfac": 1614,
      "Ġavailable": 1615,
      "Ġstruct": 1616,
      ",\"": 1617,
      "sc": 1618,
      "Ġwee": 1619,
      "ling": 1620,
      "urther": 1621,
      "Ġsuccess": 1622,
      "Ġage": 1623,
      "ends": 1624,
      "Ġrece": 1625,
      "Ġhead": 1626,
      "Ġlocal": 1627,
      "rid": 1628,
      "Ġdel": 1629,
      "ots": 1630,
      "ably": 1631,
      "ised": 1632,
      "Ġrun": 1633,
      "Ġ.": 1634,
      "Ġlab": 1635,
      "Ġmonth": 1636,
      "ocus": 1637,
      "Ġpost": 1638,
      "ww": 1639,
      "stit": 1640,
      "urope": 1641,
      "Ġprevent": 1642,
      "Ġview": 1643,
      "Ġbro": 1644,
      "Ġlittle": 1645,
      "Ġcells": 1646,
      "Ġfree": 1647,
      "Ġlater": 1648,
      "We": 1649,
      "Ġbir": 1650,
      "work": 1651,
      "Ġcome": 1652,
      "Ġ17": 1653,
      "ĠEn": 1654,
      "Ġfar": 1655,
      "Ġproblem": 1656,
      "Ġlist": 1657,
      "ope": 1658,
      "Ġtype": 1659,
      "resent": 1660,
      "ĠCent": 1661,
      "Ġpress": 1662,
      "oint": 1663,
      "hy": 1664,
      "Ġintern": 1665,
      "ĠChrist": 1666,
      "ething": 1667,
      "Ġput": 1668,
      "ression": 1669,
      "Ġcreat": 1670,
      "ĠNational": 1671,
      "Ġuntil": 1672,
      "Ġbi": 1673,
      "ggest": 1674,
      "Ġflow": 1675,
      "Ġlevels": 1676,
      "ither": 1677,
      "If": 1678,
      "Ġhard": 1679,
      "Ġlet": 1680,
      "str": 1681,
      "ged": 1682,
      "Ġamount": 1683,
      "Ġ12": 1684,
      "Ġproblems": 1685,
      "Ġyoung": 1686,
      "Ġassoci": 1687,
      "icult": 1688,
      "As": 1689,
      "Ġvol": 1690,
      "olution": 1691,
      "Ġseem": 1692,
      "ĠAf": 1693,
      "ledge": 1694,
      "por": 1695,
      "Ġcomput": 1696,
      "Ġshort": 1697,
      "Ġmult": 1698,
      "ĠUS": 1699,
      "ately": 1700,
      "ĠEurope": 1701,
      "18": 1702,
      "Ġnatural": 1703,
      "Ġbook": 1704,
      "ured": 1705,
      "12": 1706,
      "ances": 1707,
      "Ġsuggest": 1708,
      "Ġgiven": 1709,
      "ones": 1710,
      "Ġmaking": 1711,
      "aper": 1712,
      "over": 1713,
      "Ġturn": 1714,
      "Ġcirc": 1715,
      "Ġpolit": 1716,
      "ĠOr": 1717,
      "Ġimpact": 1718,
      "uture": 1719,
      "Ġsw": 1720,
      "oks": 1721,
      "Ġess": 1722,
      "Ġcho": 1723,
      "not": 1724,
      "Ġinvest": 1725,
      "ortun": 1726,
      "Ġfunction": 1727,
      "Ġdeterm": 1728,
      "ĠBe": 1729,
      "Ġheart": 1730,
      "aken": 1731,
      "ication": 1732,
      "ĠTe": 1733,
      "ours": 1734,
      "Ġeducation": 1735,
      "Ġ$": 1736,
      "Ġrad": 1737,
      "Ġdue": 1738,
      "Ġdra": 1739,
      "Ġ16": 1740,
      "pr": 1741,
      "Ġfil": 1742,
      "Ġsomething": 1743,
      "Ġfocus": 1744,
      "atory": 1745,
      "agement": 1746,
      "Ġcourse": 1747,
      "ides": 1748,
      "orld": 1749,
      "ĠOn": 1750,
      "vious": 1751,
      "Ġlikely": 1752,
      "Ġalong": 1753,
      "Ġsignificant": 1754,
      "ĠMed": 1755,
      "Ġvir": 1756,
      "aps": 1757,
      "Ġcomb": 1758,
      "ned": 1759,
      "Ġ0": 1760,
      "anc": 1761,
      "hem": 1762,
      "face": 1763,
      "Ġincrease": 1764,
      "Ġdeath": 1765,
      "Ġalways": 1766,
      "Ġcentury": 1767,
      "Ġsing": 1768,
      "ending": 1769,
      "Ġappear": 1770,
      "Ġcancer": 1771,
      "ĠAll": 1772,
      "Ġdays": 1773,
      "ohn": 1774,
      "cle": 1775,
      "Ġusually": 1776,
      "ried": 1777,
      "Ġclear": 1778,
      "ember": 1779,
      "Ġpopulation": 1780,
      "Ġsystems": 1781,
      "Ġrele": 1782,
      "Ġbehav": 1783,
      "Ġwords": 1784,
      "Ġdescrib": 1785,
      "Ġhy": 1786,
      "ecially": 1787,
      "ont": 1788,
      "Ġauthor": 1789,
      "sp": 1790,
      "Ġspecific": 1791,
      "aster": 1792,
      "Ġobs": 1793,
      "Ġgive": 1794,
      "Ġmillion": 1795,
      "Ġteac": 1796,
      "Ġlanguage": 1797,
      "mit": 1798,
      "Ġtoday": 1799,
      "Ġrecord": 1800,
      "asing": 1801,
      "ĠWhat": 1802,
      "Ġpast": 1803,
      "etic": 1804,
      "Ġcreate": 1805,
      "Ġconditions": 1806,
      "Ġabove": 1807,
      "Ġdifficult": 1808,
      "Ġexperience": 1809,
      "Ġdam": 1810,
      "Ġexist": 1811,
      "ively": 1812,
      "Ġcharacter": 1813,
      "ored": 1814,
      "ptoms": 1815,
      "Ġresults": 1816,
      "min": 1817,
      "Ġenc": 1818,
      "Ġer": 1819,
      "Ġmov": 1820,
      "Ġcommunity": 1821,
      "Ġnext": 1822,
      "ĠBrit": 1823,
      "Ġneeds": 1824,
      "There": 1825,
      "Ġestab": 1826,
      "Ġmot": 1827,
      "iation": 1828,
      "Ġconsum": 1829,
      "Ġtemper": 1830,
      "Ġline": 1831,
      "app": 1832,
      "ape": 1833,
      "ruction": 1834,
      "ators": 1835,
      "idd": 1836,
      "obal": 1837,
      "most": 1838,
      "Ġapplic": 1839,
      "ribut": 1840,
      "Ġsimilar": 1841,
      "Ġey": 1842,
      "Ġwhy": 1843,
      "ler": 1844,
      "isc": 1845,
      "especially": 1846,
      "ym": 1847,
      "Ġdiscuss": 1848,
      "Ġchanges": 1849,
      "15": 1850,
      "Ġbrain": 1851,
      "Ġtechnology": 1852,
      "Ġill": 1853,
      "Ġcrit": 1854,
      "reen": 1855,
      "Ġfuture": 1856,
      "Ġkind": 1857,
      "Ġprop": 1858,
      "nal": 1859,
      "selves": 1860,
      "Ġstrong": 1861,
      "Ġgr": 1862,
      "Ġspace": 1863,
      "Ġbegin": 1864,
      "Ġparent": 1865,
      "How": 1866,
      "Ġspecial": 1867,
      "St": 1868,
      "ĠGerm": 1869,
      "Ġnecess": 1870,
      "Ġleast": 1871,
      "oney": 1872,
      "ĠBl": 1873,
      "ĠAfric": 1874,
      "Ġhigher": 1875,
      "ĠEar": 1876,
      "aining": 1877,
      "Ġvarious": 1878,
      "ĠSo": 1879,
      "orts": 1880,
      "ique": 1881,
      "Ġnever": 1882,
      "Ġ'": 1883,
      "Ġcolle": 1884,
      "Ġacross": 1885,
      "aim": 1886,
      "rug": 1887,
      "Ġcountries": 1888,
      "Ġrespons": 1889,
      "Ġask": 1890,
      "Ġtoget": 1891,
      "Ġtogether": 1892,
      "ilities": 1893,
      "omes": 1894,
      "ane": 1895,
      "Ġnet": 1896,
      "atch": 1897,
      "Ġcomplete": 1898,
      "alf": 1899,
      "Ġhowever": 1900,
      "Ġtry": 1901,
      "Ġbusiness": 1902,
      "for": 1903,
      "Ġterm": 1904,
      "Ġleft": 1905,
      "by": 1906,
      "Ġresearc": 1907,
      "11": 1908,
      "Ġside": 1909,
      "Ġaway": 1910,
      "ateg": 1911,
      "aves": 1912,
      "Ġhaving": 1913,
      "Ġcy": 1914,
      "Ġworking": 1915,
      "Ġprofess": 1916,
      "amm": 1917,
      "ued": 1918,
      "Ġenough": 1919,
      "Ġimprove": 1920,
      "let": 1921,
      "oman": 1922,
      "Ġtru": 1923,
      "aces": 1924,
      "af": 1925,
      "ray": 1926,
      "Ġtool": 1927,
      "ires": 1928,
      "ode": 1929,
      "Ġespecially": 1930,
      "Ġbecame": 1931,
      "Ġrequire": 1932,
      "50": 1933,
      "Ġworks": 1934,
      "ument": 1935,
      "Ġchem": 1936,
      "Ġkey": 1937,
      "acy": 1938,
      "thing": 1939,
      "ysis": 1940,
      "Ġplants": 1941,
      "oot": 1942,
      "Ġteam": 1943,
      "NA": 1944,
      "duct": 1945,
      "Ġcases": 1946,
      "aring": 1947,
      "aching": 1948,
      "ilt": 1949,
      "Ġcity": 1950,
      "Ġprim": 1951,
      "ĠGo": 1952,
      "mber": 1953,
      "Ġways": 1954,
      "istic": 1955,
      "Ġfund": 1956,
      "Ġeffects": 1957,
      "Ġfull": 1958,
      "ĠWar": 1959,
      "ĠEnglish": 1960,
      "Ġtypes": 1961,
      "Ġnorm": 1962,
      "ipp": 1963,
      "rim": 1964,
      "Ġstudies": 1965,
      "Ġsens": 1966,
      "Ġgeneral": 1967,
      "Ġknowledge": 1968,
      "sw": 1969,
      "ales": 1970,
      "lement": 1971,
      "Ġz": 1972,
      "Ġhouse": 1973,
      "ĠJohn": 1974,
      "urity": 1975,
      "Ġconsider": 1976,
      "Ġstep": 1977,
      "itor": 1978,
      "Ġrepresent": 1979,
      "30": 1980,
      "Ġaccount": 1981,
      "ott": 1982,
      "Ġ198": 1983,
      "lo": 1984,
      "ges": 1985,
      "side": 1986,
      "iting": 1987,
      "ĠSome": 1988,
      "Ġwhether": 1989,
      "Ġsymptoms": 1990,
      "Ġphysical": 1991,
      "Ġrelations": 1992,
      "Ġstat": 1993,
      "Ġgoing": 1994,
      "Ġsubject": 1995,
      "Ġreason": 1996,
      "An": 1997,
      "Ġself": 1998,
      "Ġmakes": 1999,
      "ĠWorld": 2000,
      "ency": 2001,
      "Ġmind": 2002,
      "ung": 2003,
      "Ġprotect": 2004,
      "ox": 2005,
      "ae": 2006,
      "Ġsum": 2007,
      "erence": 2008,
      "edi": 2009,
      "ley": 2010,
      "Ġlower": 2011,
      "Ġfurther": 2012,
      "Ġemploy": 2013,
      "Ġ30": 2014,
      "Ġground": 2015,
      "ready": 2016,
      "chie": 2017,
      "Ġpatients": 2018,
      "For": 2019,
      "hing": 2020,
      "Ġpolic": 2021,
      "Ġstory": 2022,
      "200": 2023,
      "ird": 2024,
      "Ġur": 2025,
      "Ġconcer": 2026,
      "ĠIntern": 2027,
      "Ġrole": 2028,
      "Ġopt": 2029,
      "Ġinflu": 2030,
      "apt": 2031,
      "ery": 2032,
      "unt": 2033,
      "ification": 2034,
      "16": 2035,
      "Ġloss": 2036,
      "Ġnut": 2037,
      "Ġmic": 2038,
      "aut": 2039,
      "Ġgroups": 2040,
      "Ġens": 2041,
      "Ġpred": 2042,
      "ĠWith": 2043,
      "ĠOne": 2044,
      "Ġevidence": 2045,
      "Ġquestion": 2046,
      "eb": 2047,
      "ĠGen": 2048,
      "//": 2049,
      "Ġeff": 2050,
      "Ġvalue": 2051,
      "Ġbelow": 2052,
      "Ġchall": 2053,
      "Ġbig": 2054,
      "...": 2055,
      "Ġclose": 2056,
      "Ġreturn": 2057,
      "atures": 2058,
      "ibility": 2059,
      "Ġsure": 2060,
      "Ġscience": 2061,
      "Ġproducts": 2062,
      "augh": 2063,
      "Ġrather": 2064,
      "Ġactivity": 2065,
      "17": 2066,
      "Ġlive": 2067,
      "Ġprob": 2068,
      "ables": 2069,
      "etimes": 2070,
      "cul": 2071,
      "Ġneg": 2072,
      "acc": 2073,
      "Ġoffic": 2074,
      "ann": 2075,
      "Ġindic": 2076,
      "Ġgrowth": 2077,
      "Ġseen": 2078,
      "ites": 2079,
      "Ġparticip": 2080,
      "Ġeither": 2081,
      "Ġalready": 2082,
      "ĠThat": 2083,
      "Ġactivities": 2084,
      "overed": 2085,
      "Ġ14": 2086,
      "rel": 2087,
      "sych": 2088,
      "Ġrange": 2089,
      "ĠCar": 2090,
      "verage": 2091,
      "iol": 2092,
      "esc": 2093,
      "rams": 2094,
      "Ġdig": 2095,
      "Ġlot": 2096,
      "put": 2097,
      "Ġdeg": 2098,
      "ĠAm": 2099,
      "Ġsingle": 2100,
      "ival": 2101,
      "ĠMar": 2102,
      "Ġtoward": 2103,
      "Ġdiet": 2104,
      "ands": 2105,
      "Ġreally": 2106,
      "Ġwr": 2107,
      "Ġword": 2108,
      "Ġquality": 2109,
      "Ġresources": 2110,
      "://": 2111,
      "Ġtext": 2112,
      "ream": 2113,
      "ĠSoc": 2114,
      "Ġpotential": 2115,
      "Ġdone": 2116,
      "Ġrate": 2117,
      "Ġrecogn": 2118,
      "Ġsite": 2119,
      "oura": 2120,
      "Ġclimate": 2121,
      "Ġnational": 2122,
      "osis": 2123,
      "Ġwind": 2124,
      "Ġaccording": 2125,
      "Ġtradition": 2126,
      "ĠBy": 2127,
      "ĠHealth": 2128,
      "Ġindust": 2129,
      "Ġsun": 2130,
      "Ġdeveloped": 2131,
      "Ġmedical": 2132,
      "ĠCal": 2133,
      "ER": 2134,
      "Ġmodel": 2135,
      "Ġevent": 2136,
      "Ġarticle": 2137,
      "fact": 2138,
      "Ġphot": 2139,
      "ĠAust": 2140,
      "Ġfive": 2141,
      "yn": 2142,
      "ĠDr": 2143,
      "Ġproduction": 2144,
      "Ġbuilding": 2145,
      "Ġfall": 2146,
      "amin": 2147,
      "ivil": 2148,
      "Ġmembers": 2149,
      "bon": 2150,
      "uation": 2151,
      "ĠLe": 2152,
      "iple": 2153,
      "earch": 2154,
      "Ġsent": 2155,
      "Ġonce": 2156,
      "Ġcollect": 2157,
      "Ġdest": 2158,
      "Ġdoct": 2159,
      "Ġachie": 2160,
      "roll": 2161,
      "Ġtaken": 2162,
      "Ġmass": 2163,
      "Ġissues": 2164,
      "fer": 2165,
      "Ġrelig": 2166,
      "iam": 2167,
      "ublic": 2168,
      "Ġwhole": 2169,
      "14": 2170,
      "rict": 2171,
      "Ġreduce": 2172,
      "right": 2173,
      "ĠNorth": 2174,
      "ĠGe": 2175,
      "Ġmeet": 2176,
      "Ġdetail": 2177,
      "When": 2178,
      "Ġresearchers": 2179,
      "Ġann": 2180,
      "Ġsurface": 2181,
      "Ġfrequ": 2182,
      "ĠIm": 2183,
      "val": 2184,
      "urch": 2185,
      "ournal": 2186,
      "Ġbat": 2187,
      "Ġflu": 2188,
      "Ġcame": 2189,
      "Ġdom": 2190,
      "idered": 2191,
      "Ġthemselves": 2192,
      "13": 2193,
      "ches": 2194,
      "ips": 2195,
      "Ġinit": 2196,
      "Ġupon": 2197,
      "ask": 2198,
      "Ġhold": 2199,
      "ĠMay": 2200,
      "Ġfield": 2201,
      "Ġpolitical": 2202,
      "ety": 2203,
      "Ġdrug": 2204,
      "Ġwhite": 2205,
      "Ġcreated": 2206,
      "Ġsource": 2207,
      "ison": 2208,
      "Ġquestions": 2209,
      "Ġaddress": 2210,
      "Ġwide": 2211,
      "leep": 2212,
      "Ġliving": 2213,
      "Ġver": 2214,
      "Ġred": 2215,
      "ule": 2216,
      "ils": 2217,
      "Ġstates": 2218,
      "fficient": 2219,
      "âĢ¦": 2220,
      "Ġpaper": 2221,
      "ĠYork": 2222,
      "Ġobserv": 2223,
      "tal": 2224,
      "Ġabs": 2225,
      "Ġ197": 2226,
      "Ġcannot": 2227,
      "):": 2228,
      "like": 2229,
      "Ġlay": 2230,
      "Ġnature": 2231,
      "ĠSouth": 2232,
      "SA": 2233,
      "apan": 2234,
      "ications": 2235,
      "Ġpay": 2236,
      "Ġincreased": 2237,
      "Ġconsidered": 2238,
      "ĠAb": 2239,
      "\".": 2240,
      "ĠShe": 2241,
      "Ġconcept": 2242,
      "Ġintrodu": 2243,
      "ober": 2244,
      "reg": 2245,
      "Ġitself": 2246,
      "reme": 2247,
      "ĠRep": 2248,
      "Ġ=": 2249,
      "Ġhistor": 2250,
      "Ġactually": 2251,
      "ĠTr": 2252,
      "rect": 2253,
      "Ġsize": 2254,
      "ĠAmerica": 2255,
      "Ġskills": 2256,
      "ĠMan": 2257,
      "Ġfail": 2258,
      "Ġeconomic": 2259,
      "Ġrecomm": 2260,
      "epend": 2261,
      "illed": 2262,
      "Ġtell": 2263,
      "Ġassociated": 2264,
      "Ġdoc": 2265,
      "Ġthought": 2266,
      "Ġweight": 2267,
      "Ġanimals": 2268,
      "Ġfamil": 2269,
      "Ġpublished": 2270,
      "Ġcut": 2271,
      "eter": 2272,
      "Ġfat": 2273,
      "Ġrepl": 2274,
      "utions": 2275,
      "Ġfri": 2276,
      "Ġadult": 2277,
      "org": 2278,
      "Ġweek": 2279,
      "Ġalmost": 2280,
      "Ġrequired": 2281,
      "Ġpractice": 2282,
      "Ġpressure": 2283,
      "ĠAss": 2284,
      "go": 2285,
      "ĠSy": 2286,
      "Ġsound": 2287,
      "Ġskin": 2288,
      "oon": 2289,
      "Ġblack": 2290,
      "Ġmodern": 2291,
      "ĠStud": 2292,
      "Ġmaint": 2293,
      "Ġglobal": 2294,
      "ivity": 2295,
      "Ġopportun": 2296,
      "aged": 2297,
      "itud": 2298,
      "Ġclaim": 2299,
      "ging": 2300,
      "enn": 2301,
      "Ġsal": 2302,
      "ĠAct": 2303,
      "Ġprovides": 2304,
      "Ġarg": 2305,
      "Ġunderstanding": 2306,
      "itary": 2307,
      "Ġ13": 2308,
      "Ġstudent": 2309,
      "Ch": 2310,
      "Ġidea": 2311,
      "ĠDep": 2312,
      "Ġmaterials": 2313,
      "Ġentire": 2314,
      "Ġpriv": 2315,
      "Ġsimple": 2316,
      "Ġrights": 2317,
      "Ġcomplex": 2318,
      "Ġmarket": 2319,
      "Ġneeded": 2320,
      "ĠEarth": 2321,
      "Ġdog": 2322,
      "light": 2323,
      "ened": 2324,
      "ma": 2325,
      "sh": 2326,
      "Ġability": 2327,
      "ibr": 2328,
      "Ġtook": 2329,
      "Ġhalf": 2330,
      "aced": 2331,
      "To": 2332,
      "Ġquick": 2333,
      "Ġengine": 2334,
      "Ġparts": 2335,
      "hib": 2336,
      "ney": 2337,
      "lying": 2338,
      "ump": 2339,
      "Ġcat": 2340,
      "Ġrelationship": 2341,
      "artment": 2342,
      "Ġport": 2343,
      "sequ": 2344,
      "Ġhours": 2345,
      "Ġeffective": 2346,
      "Ġrelated": 2347,
      "Ġmoney": 2348,
      "Ġprote": 2349,
      "Ġstress": 2350,
      "erve": 2351,
      "Ġcondition": 2352,
      "Ġfish": 2353,
      "ront": 2354,
      "Ġexerc": 2355,
      "ening": 2356,
      ".)": 2357,
      "Ġsuper": 2358,
      "Ġexperien": 2359,
      "Ġmanagement": 2360,
      "Ġspe": 2361,
      "Ġmor": 2362,
      "Al": 2363,
      "Ġpurp": 2364,
      "Ġvers": 2365,
      "pro": 2366,
      "my": 2367,
      "ĠX": 2368,
      "acks": 2369,
      "het": 2370,
      "oses": 2371,
      "ores": 2372,
      "Ġbegan": 2373,
      "Ġarch": 2374,
      "Ġsense": 2375,
      "Ġmonths": 2376,
      "oph": 2377,
      "Ġservices": 2378,
      "Ġarr": 2379,
      "Ġsepar": 2380,
      "cient": 2381,
      "ĠJapan": 2382,
      "gest": 2383,
      "Ġavoid": 2384,
      "Ġcomes": 2385,
      "ĠGu": 2386,
      "rad": 2387,
      "Ġapproach": 2388,
      "inter": 2389,
      "Ġlink": 2390,
      "Ġge": 2391,
      "Ġnecessary": 2392,
      "oll": 2393,
      "Ġhealthy": 2394,
      "urs": 2395,
      "Ġregion": 2396,
      "ply": 2397,
      "ai": 2398,
      "olic": 2399,
      "ĠBritish": 2400,
      "Ġever": 2401,
      "Ġcoll": 2402,
      "Ġhtt": 2403,
      "ush": 2404,
      "utes": 2405,
      "vere": 2406,
      "Ġcr": 2407,
      "Ġansw": 2408,
      "Ġsuff": 2409,
      "mb": 2410,
      "rown": 2411,
      "Ġheat": 2412,
      "Wh": 2413,
      "Ġoil": 2414,
      "Ġgreen": 2415,
      "eds": 2416,
      "aging": 2417,
      "irm": 2418,
      "ĠState": 2419,
      "Ġassess": 2420,
      "Ġ|": 2421,
      "Ġ196": 2422,
      "Ġcomputer": 2423,
      "ĠHist": 2424,
      "Ġrul": 2425,
      "Ġfactors": 2426,
      "Ġcop": 2427,
      "abit": 2428,
      "uel": 2429,
      "ĠComp": 2430,
      "Ġanalysis": 2431,
      "Ġemer": 2432,
      "ĠHis": 2433,
      "Ġliter": 2434,
      "Ġparents": 2435,
      "Ġyet": 2436,
      "ese": 2437,
      "Ġfire": 2438,
      "empt": 2439,
      "Ġtherap": 2440,
      "bo": 2441,
      "Ġthroughout": 2442,
      "Ġreact": 2443,
      "based": 2444,
      "Ġproduce": 2445,
      "ze": 2446,
      "Ġ100": 2447,
      "usion": 2448,
      "Ġfarm": 2449,
      "izing": 2450,
      "Ġpath": 2451,
      "Ġstop": 2452,
      "ript": 2453,
      "Ġtar": 2454,
      "ĠCanad": 2455,
      "chan": 2456,
      "iddle": 2457,
      "Ġregard": 2458,
      "Ġpopular": 2459,
      "Ġsoft": 2460,
      "ĠCont": 2461,
      "hold": 2462,
      "ensive": 2463,
      "Ġincreasing": 2464,
      "Ġ50": 2465,
      "Ġchemical": 2466,
      "Ġjob": 2467,
      "--": 2468,
      "____": 2469,
      "abor": 2470,
      "ĠNe": 2471,
      "You": 2472,
      "Ġpersonal": 2473,
      "erous": 2474,
      "ections": 2475,
      "Ġprinc": 2476,
      "Ġconduct": 2477,
      "Ġprevious": 2478,
      "oes": 2479,
      "ederal": 2480,
      "Ġgas": 2481,
      "Ġsix": 2482,
      "rated": 2483,
      "ĠCo": 2484,
      "Ġstructure": 2485,
      "ences": 2486,
      "estern": 2487,
      "Ġmedia": 2488,
      "icles": 2489,
      "Ġpattern": 2490,
      "Ġmeasure": 2491,
      "Ġrecent": 2492,
      "Ġonline": 2493,
      "ccording": 2494,
      "yl": 2495,
      "ĠAfter": 2496,
      "abet": 2497,
      "ume": 2498,
      "Ġtaking": 2499,
      "nces": 2500,
      "ĠPr": 2501,
      "Ġshows": 2502,
      "Ġindustry": 2503,
      "uck": 2504,
      "Ġinteract": 2505,
      "Ġlonger": 2506,
      "Ġbar": 2507,
      "Ġsam": 2508,
      "Ġreading": 2509,
      "ising": 2510,
      "rate": 2511,
      "ES": 2512,
      "emic": 2513,
      "Ġposition": 2514,
      "Ġ25": 2515,
      "Ġconc": 2516,
      "Ġprovided": 2517,
      "Ġsurv": 2518,
      "Ġut": 2519,
      "pid": 2520,
      "Ġservice": 2521,
      "ĠPe": 2522,
      "ĠFl": 2523,
      "igure": 2524,
      "Ġbuilt": 2525,
      "order": 2526,
      "Ġmatter": 2527,
      "ulations": 2528,
      "ster": 2529,
      "Ġenvironmental": 2530,
      "Ġmusic": 2531,
      "minist": 2532,
      "ows": 2533,
      "Ġsociety": 2534,
      "Ġtalk": 2535,
      "ister": 2536,
      "Ġsex": 2537,
      "Ġcolor": 2538,
      "iction": 2539,
      "Ġdeb": 2540,
      "Ġetc": 2541,
      "ID": 2542,
      "istance": 2543,
      "Ġaction": 2544,
      "Ġcheck": 2545,
      "Ġtotal": 2546,
      "inary": 2547,
      "Ġheav": 2548,
      "lands": 2549,
      "Ġfeed": 2550,
      "Ġcaused": 2551,
      "Ġtraining": 2552,
      "Ġindividuals": 2553,
      "onse": 2554,
      "mon": 2555,
      "Ġthing": 2556,
      "ene": 2557,
      "Ġbur": 2558,
      "Ġsoil": 2559,
      "Ġla": 2560,
      "Ġterms": 2561,
      "Ġcontent": 2562,
      "Ġce": 2563,
      "ĠInstit": 2564,
      "hood": 2565,
      "Ġaccept": 2566,
      "ched": 2567,
      "ns": 2568,
      "ĠII": 2569,
      "ĠJew": 2570,
      "aily": 2571,
      "Ġwriting": 2572,
      "Ġdiagn": 2573,
      "yle": 2574,
      "Ġbring": 2575,
      "ĠResearch": 2576,
      "wh": 2577,
      "Ġsafe": 2578,
      "Ġtemperature": 2579,
      "fully": 2580,
      "Ġdesigned": 2581,
      "Ġoriginal": 2582,
      "Ã©": 2583,
      "Ġcontact": 2584,
      "Ġbreak": 2585,
      "ricult": 2586,
      "Ġtravel": 2587,
      "Ġ11": 2588,
      "Ġbehavior": 2589,
      "Ġtrue": 2590,
      "Ġcompany": 2591,
      "Ġincludes": 2592,
      "Ġsleep": 2593,
      "ĠEm": 2594,
      "Ġprograms": 2595,
      "ucle": 2596,
      "ĠWhile": 2597,
      "Ġmeaning": 2598,
      "Ġviol": 2599,
      "reng": 2600,
      "Ġmethods": 2601,
      "Ġbenefits": 2602,
      "vey": 2603,
      "ronic": 2604,
      "Ġschools": 2605,
      "Ġled": 2606,
      "lt": 2607,
      "ĠAustral": 2608,
      "anced": 2609,
      "Ġthreat": 2610,
      "Ġculture": 2611,
      "asc": 2612,
      "Ġcontain": 2613,
      "uge": 2614,
      "Ġsat": 2615,
      "Ġrev": 2616,
      "Ġinj": 2617,
      "aries": 2618,
      "Ġexperim": 2619,
      "istics": 2620,
      "Ġvari": 2621,
      "ĠKing": 2622,
      "rought": 2623,
      "Ġple": 2624,
      "Ġshown": 2625,
      "Ġslow": 2626,
      "Ġeasy": 2627,
      "aff": 2628,
      "Ġreported": 2629,
      "imately": 2630,
      "Ġsometimes": 2631,
      "Ġpositive": 2632,
      "Ġlives": 2633,
      "umb": 2634,
      "dom": 2635,
      "Ġrelative": 2636,
      "Ġstandard": 2637,
      "Ġlif": 2638,
      "Ġexc": 2639,
      "Ġpage": 2640,
      "gar": 2641,
      "ĠPres": 2642,
      "Ġsimply": 2643,
      "Ġvariety": 2644,
      "astic": 2645,
      "Ġlove": 2646,
      "ĠÂ": 2647,
      "aving": 2648,
      "Ġvide": 2649,
      "duc": 2650,
      "Ġaverage": 2651,
      "Ġcauses": 2652,
      "Ġspread": 2653,
      "ĠSec": 2654,
      "ĠNo": 2655,
      "Ġscientists": 2656,
      "atives": 2657,
      "Ġearth": 2658,
      "40": 2659,
      "Ġtarget": 2660,
      "Ġeat": 2661,
      "ades": 2662,
      "Ġcompan": 2663,
      "amed": 2664,
      "rench": 2665,
      "Ġwild": 2666,
      "itation": 2667,
      "ĠSu": 2668,
      "Ġpoll": 2669,
      "Ġclean": 2670,
      "ropri": 2671,
      "AT": 2672,
      "Ġmach": 2673,
      "osition": 2674,
      "ĠSchool": 2675,
      "Ġissue": 2676,
      "Ġsubst": 2677,
      "ĠPar": 2678,
      "ners": 2679,
      "aches": 2680,
      "lex": 2681,
      "Ġgreater": 2682,
      "new": 2683,
      "Ġregular": 2684,
      "ĠMin": 2685,
      "Ġemb": 2686,
      "arily": 2687,
      "rior": 2688,
      "rie": 2689,
      "Ġcompl": 2690,
      "Ġbelieve": 2691,
      "Ġwritten": 2692,
      "eration": 2693,
      "ufact": 2694,
      "icine": 2695,
      "Ġrespect": 2696,
      "Ġfru": 2697,
      "Ġuses": 2698,
      "Ġinvolved": 2699,
      "Ġmovement": 2700,
      "Ġorigin": 2701,
      "Ġdeep": 2702,
      "Ġnormal": 2703,
      "Ġshare": 2704,
      "Ġste": 2705,
      "ĠJes": 2706,
      "Ġforms": 2707,
      "rast": 2708,
      "Ġmicro": 2709,
      "Ġdamage": 2710,
      "Ġreview": 2711,
      "Ġfem": 2712,
      "22": 2713,
      "know": 2714,
      "ĠPer": 2715,
      "Ġpict": 2716,
      "But": 2717,
      "Ġnetwork": 2718,
      "rand": 2719,
      "IN": 2720,
      "aling": 2721,
      "AR": 2722,
      "Ġlate": 2723,
      "Ġidentify": 2724,
      "ervation": 2725,
      "ius": 2726,
      "ana": 2727,
      "Ġcamp": 2728,
      "Ġparticularly": 2729,
      "Ġencoura": 2730,
      "verse": 2731,
      "Ġlack": 2732,
      "Ġattempt": 2733,
      "Ġstreng": 2734,
      "Ġpsych": 2735,
      "oor": 2736,
      "Ġevents": 2737,
      "lies": 2738,
      "Ġprec": 2739,
      "bor": 2740,
      "Ġoutside": 2741,
      "Ġdemon": 2742,
      "Ġbasic": 2743,
      "Ġimage": 2744,
      "Ġdoing": 2745,
      "ached": 2746,
      "hel": 2747,
      "Ġsafety": 2748,
      "Ġgenerally": 2749,
      "ials": 2750,
      "Ġrefer": 2751,
      "Ġdraw": 2752,
      "Ġsqu": 2753,
      "ights": 2754,
      "Ġvisit": 2755,
      "Ġwood": 2756,
      "Ġhelps": 2757,
      "Ġdeveloping": 2758,
      "Ġmechan": 2759,
      "Ġsources": 2760,
      "ender": 2761,
      "son": 2762,
      "Ġimplement": 2763,
      "Ġbr": 2764,
      "Ġserious": 2765,
      "ength": 2766,
      "elling": 2767,
      "ĠCount": 2768,
      "ief": 2769,
      "Ġfoods": 2770,
      "Ġcarbon": 2771,
      "Ġinternational": 2772,
      "Ġextreme": 2773,
      "Ġtax": 2774,
      "imum": 2775,
      "Ġlog": 2776,
      "Ġpoor": 2777,
      "ops": 2778,
      "Ġface": 2779,
      "Ġseries": 2780,
      "Ġgrowing": 2781,
      "Ġcust": 2782,
      "Ġremov": 2783,
      "ĠJu": 2784,
      "uary": 2785,
      "ĠScience": 2786,
      "Ġensure": 2787,
      "Ġresponse": 2788,
      "Ġideas": 2789,
      "Ġbacter": 2790,
      "isions": 2791,
      "ĠChina": 2792,
      "Ġharm": 2793,
      "Ġcompet": 2794,
      "Ġap": 2795,
      "ĠEd": 2796,
      "osure": 2797,
      "cies": 2798,
      "ming": 2799,
      "Ġlat": 2800,
      "ĠJan": 2801,
      "Ġattention": 2802,
      "ĠIndia": 2803,
      "ribution": 2804,
      "ctions": 2805,
      "Ġproduced": 2806,
      "Ġelectric": 2807,
      "Ġsou": 2808,
      "erg": 2809,
      "Ġsea": 2810,
      "Ġattack": 2811,
      "Ġast": 2812,
      "ises": 2813,
      "Ġinteg": 2814,
      "cil": 2815,
      "Ġteachers": 2816,
      "Ġforce": 2817,
      "raft": 2818,
      "Ġconsist": 2819,
      "Ġsecurity": 2820,
      "Ġ/": 2821,
      "Ġcoun": 2822,
      "amb": 2823,
      "ĠCenter": 2824,
      "Ġcompon": 2825,
      "Ġago": 2826,
      "Ġaff": 2827,
      "Ġselect": 2828,
      "ided": 2829,
      "On": 2830,
      "Ġsust": 2831,
      "Ġcross": 2832,
      "ror": 2833,
      "Ġvirus": 2834,
      "oles": 2835,
      "Ġnumbers": 2836,
      "Ġfeet": 2837,
      "Ġmess": 2838,
      "Ġprobably": 2839,
      "ĠHar": 2840,
      "ĠWill": 2841,
      "Ġcit": 2842,
      "Ġcommit": 2843,
      "uth": 2844,
      "vention": 2845,
      "Ġbal": 2846,
      "Ġindepend": 2847,
      "Ġforest": 2848,
      "Ġdefin": 2849,
      "oly": 2850,
      "inks": 2851,
      "Ġgetting": 2852,
      "Ġir": 2853,
      "Ġprep": 2854,
      "Ġcontinue": 2855,
      "25": 2856,
      "ĠPart": 2857,
      "osing": 2858,
      "overy": 2859,
      "OR": 2860,
      "ecause": 2861,
      "Ġestim": 2862,
      "Ġlooking": 2863,
      "ban": 2864,
      "Ġdou": 2865,
      "Ġveget": 2866,
      "Ġ--": 2867,
      "ground": 2868,
      "ĠMe": 2869,
      "Ġemot": 2870,
      "abetes": 2871,
      "Ġaware": 2872,
      "Ġchalleng": 2873,
      "ĠQu": 2874,
      "Ġcivil": 2875,
      "Ġexpress": 2876,
      "ems": 2877,
      "ĠBo": 2878,
      "ĠRuss": 2879,
      "Ġconcent": 2880,
      "where": 2881,
      "Ġwall": 2882,
      "Ġmother": 2883,
      "ties": 2884,
      "erson": 2885,
      "Ġec": 2886,
      "ĠAug": 2887,
      "Ġincluded": 2888,
      "Ġmanufact": 2889,
      "haps": 2890,
      "Ġwebs": 2891,
      "Ġbirth": 2892,
      "ino": 2893,
      "Ġleaders": 2894,
      "Ġkids": 2895,
      "fect": 2896,
      "Ġthus": 2897,
      "issions": 2898,
      "ying": 2899,
      "Ġfa": 2900,
      "Ġinstead": 2901,
      "Ġpolicy": 2902,
      "ington": 2903,
      "ĠApp": 2904,
      "iforn": 2905,
      "Ġtakes": 2906,
      "Ġcover": 2907,
      "ĠMore": 2908,
      "Ġox": 2909,
      "ĠDo": 2910,
      "itude": 2911,
      "ls": 2912,
      "ĠMany": 2913,
      "ĠCO": 2914,
      "Ġdaily": 2915,
      "useum": 2916,
      "Ġcompared": 2917,
      "ads": 2918,
      "Ġcolon": 2919,
      "Ġessential": 2920,
      "Ġestablished": 2921,
      "cell": 2922,
      "Ġdifference": 2923,
      "Ġtown": 2924,
      "Ġdoesn": 2925,
      "Ġ2012": 2926,
      "Ġthird": 2927,
      "ĠCons": 2928,
      "Ġanimal": 2929,
      "room": 2930,
      "rs": 2931,
      "Ġnight": 2932,
      "Ġtherefore": 2933,
      "Ġhyd": 2934,
      "Ġinstit": 2935,
      "ĠEuropean": 2936,
      "Ġpatient": 2937,
      "ancial": 2938,
      "Ġscientific": 2939,
      "21": 2940,
      "Ġtheory": 2941,
      "Ġvit": 2942,
      "Ġbooks": 2943,
      "Ġdang": 2944,
      "Ġpoints": 2945,
      "Ġmilitary": 2946,
      "Ġmental": 2947,
      "Ġcorrect": 2948,
      "Ġtree": 2949,
      "Ġ2010": 2950,
      "ĠFrench": 2951,
      "Ġdispl": 2952,
      "Ġwarm": 2953,
      "ĠGerman": 2954,
      "Ġful": 2955,
      "asons": 2956,
      "Ġsolar": 2957,
      "Ġinvestig": 2958,
      "set": 2959,
      "Ġquite": 2960,
      "Ġheld": 2961,
      "Ġspeed": 2962,
      "Ġperformance": 2963,
      "Ġadded": 2964,
      "ĠAc": 2965,
      "ĠInstitute": 2966,
      "ĠEduc": 2967,
      "Ġcompanies": 2968,
      "Ġdiv": 2969,
      "IS": 2970,
      "Ġeasily": 2971,
      "Ġprimary": 2972,
      "Ġdetermine": 2973,
      "ha": 2974,
      "Ġbab": 2975,
      "rew": 2976,
      "Ġthous": 2977,
      "Ġspir": 2978,
      "Ġsomeone": 2979,
      "ĠInt": 2980,
      "Ġstarted": 2981,
      "ifornia": 2982,
      "Ġfav": 2983,
      "ext": 2984,
      "Ġfamilies": 2985,
      "hern": 2986,
      "na": 2987,
      "Ġ40": 2988,
      "ceed": 2989,
      "Ġseems": 2990,
      "Ġtraditional": 2991,
      "Ġreflect": 2992,
      "ĠDepartment": 2993,
      "ille": 2994,
      "ĠJune": 2995,
      "AN": 2996,
      "thern": 2997,
      "Ġprint": 2998,
      "Ġimmedi": 2999,
      "gency": 3000,
      "Ġnegative": 3001,
      "Ġunique": 3002,
      "Ġbit": 3003,
      "ography": 3004,
      "Ġtools": 3005,
      "Ġsold": 3006,
      "Ġ24": 3007,
      "Ġdoctor": 3008,
      "ĠMarch": 3009,
      "Ġcapt": 3010,
      "undred": 3011,
      "Ġallows": 3012,
      "Ġaud": 3013,
      "Ġinside": 3014,
      "Ġcommunities": 3015,
      "ĠMost": 3016,
      "Ġdocument": 3017,
      "ension": 3018,
      "ĠAg": 3019,
      "rition": 3020,
      "ĠRet": 3021,
      "pril": 3022,
      "Ġtur": 3023,
      "Ġdecre": 3024,
      "Ġoffer": 3025,
      "Ġdiseases": 3026,
      "Ġmultiple": 3027,
      "ĠOct": 3028,
      "Ġalthough": 3029,
      "Ġappropri": 3030,
      "lied": 3031,
      "Ġmagn": 3032,
      "Ġdirectly": 3033,
      "Ġlarger": 3034,
      "Ġadditional": 3035,
      "ĠIndian": 3036,
      "www": 3037,
      "Ġactive": 3038,
      "den": 3039,
      "ift": 3040,
      "Ġquickly": 3041,
      "ĠPre": 3042,
      "ĠFran": 3043,
      "iency": 3044,
      "ĠInternational": 3045,
      "Ġprogress": 3046,
      "lim": 3047,
      "elt": 3048,
      "orks": 3049,
      "Ġhumans": 3050,
      "Ġ194": 3051,
      "Ġreve": 3052,
      "IC": 3053,
      "Ġtrees": 3054,
      "ĠGl": 3055,
      "uman": 3056,
      "Ġlabor": 3057,
      "Ġachieve": 3058,
      "ancy": 3059,
      "ounds": 3060,
      "Ġaltern": 3061,
      "rig": 3062,
      "Ġeval": 3063,
      "Ġwent": 3064,
      "Ġdry": 3065,
      "Ġrout": 3066,
      "olar": 3067,
      "Ġbehind": 3068,
      "Ġsil": 3069,
      "Ġnation": 3070,
      "Ġvacc": 3071,
      "ridge": 3072,
      "ĠMus": 3073,
      "orthern": 3074,
      "Ġhighly": 3075,
      "uries": 3076,
      "Ġ2011": 3077,
      "Ġhabit": 3078,
      "ĠCalifornia": 3079,
      "ellow": 3080,
      "23": 3081,
      "aly": 3082,
      "iot": 3083,
      "inese": 3084,
      "Ġfoot": 3085,
      "Ġdemonstr": 3086,
      "ĠYour": 3087,
      "Ġextra": 3088,
      "Ġgard": 3089,
      "One": 3090,
      "omet": 3091,
      "Ġnucle": 3092,
      "ĠChristian": 3093,
      "Ġfront": 3094,
      "icated": 3095,
      "Ġhot": 3096,
      "Ġimpl": 3097,
      "ĠArt": 3098,
      "leb": 3099,
      "yond": 3100,
      "Ġsevere": 3101,
      "Ġeye": 3102,
      "Ġspeak": 3103,
      "Ġtiss": 3104,
      "Ġbeginning": 3105,
      "Ġcritical": 3106,
      "joy": 3107,
      "Ġthinking": 3108,
      "Ġsus": 3109,
      "Ġwhose": 3110,
      "Ġinfection": 3111,
      "Ġexercise": 3112,
      "Ġwalk": 3113,
      "oming": 3114,
      "Ġaspect": 3115,
      "Ġhost": 3116,
      "Ġsupply": 3117,
      "Ġaim": 3118,
      "Ġnorth": 3119,
      "iter": 3120,
      "Ġtri": 3121,
      "Ġcred": 3122,
      "ulate": 3123,
      "Ġdrink": 3124,
      "Ġelements": 3125,
      "ĠChar": 3126,
      "Ġ2009": 3127,
      "Ġi": 3128,
      "Ġleading": 3129,
      "ĠAfrican": 3130,
      "Ġsoon": 3131,
      "Ġtransport": 3132,
      "ĠCor": 3133,
      "term": 3134,
      "coh": 3135,
      "Ġclin": 3136,
      "Ġprotein": 3137,
      "Ġfram": 3138,
      "Ġtend": 3139,
      "Ġinterp": 3140,
      "Ġstri": 3141,
      "Ġmount": 3142,
      "Ġvalues": 3143,
      "He": 3144,
      "Ġprior": 3145,
      "Ġcapital": 3146,
      "Ġbroad": 3147,
      "Ġcentral": 3148,
      "Ġdecision": 3149,
      "rance": 3150,
      "mar": 3151,
      "cean": 3152,
      "Ġhar": 3153,
      "Ġanswer": 3154,
      "ĠJesus": 3155,
      "ĠSept": 3156,
      "Ġreceived": 3157,
      "Ġeth": 3158,
      "Ġlost": 3159,
      "Ġlimited": 3160,
      "anks": 3161,
      "oke": 3162,
      "oring": 3163,
      "iques": 3164,
      "Ġdecl": 3165,
      "ields": 3166,
      "âĢ¢": 3167,
      "ĠOther": 3168,
      "ilos": 3169,
      "So": 3170,
      "Ġbad": 3171,
      "ĠRec": 3172,
      "ĠWest": 3173,
      "Ġproced": 3174,
      "formation": 3175,
      "Ġanaly": 3176,
      "Ġvideo": 3177,
      "uk": 3178,
      "Ġancient": 3179,
      "Ġcontains": 3180,
      "Ġx": 3181,
      "lier": 3182,
      "ĠAfrica": 3183,
      "Ġinn": 3184,
      "ĠSch": 3185,
      "ĠJuly": 3186,
      "Ġprotection": 3187,
      "Ġacid": 3188,
      "Ġexpect": 3189,
      "vant": 3190,
      "à¤": 3191,
      "Ġprivate": 3192,
      "Ġgame": 3193,
      "ching": 3194,
      "Ġnews": 3195,
      "Ġteaching": 3196,
      "arr": 3197,
      "ĠAnt": 3198,
      "iers": 3199,
      "Ġdescribed": 3200,
      "Ġhor": 3201,
      "Ġminutes": 3202,
      "lection": 3203,
      "Ġuseful": 3204,
      "Ġtowards": 3205,
      "Ġcustom": 3206,
      "ON": 3207,
      "Ġjud": 3208,
      "At": 3209,
      "Ġdark": 3210,
      "Ġhundred": 3211,
      "Ġelse": 3212,
      "Ġcard": 3213,
      "Ġstay": 3214,
      "Ġobt": 3215,
      "Ġpurpose": 3216,
      "Ġmom": 3217,
      "Ġhttp": 3218,
      "ĠAugust": 3219,
      "Ġreligious": 3220,
      "Ġsearch": 3221,
      "Ġfast": 3222,
      "Ġblock": 3223,
      "Ġsection": 3224,
      "pe": 3225,
      "Ġcontribut": 3226,
      "hens": 3227,
      "hest": 3228,
      "Ġcapac": 3229,
      "ĠEl": 3230,
      "see": 3231,
      "mission": 3232,
      "Ġseason": 3233,
      "Ġpack": 3234,
      "Ġadminist": 3235,
      "gn": 3236,
      "eal": 3237,
      "istry": 3238,
      "ĠChild": 3239,
      "Ġapplication": 3240,
      "Ġbrought": 3241,
      "ĠNot": 3242,
      "rael": 3243,
      "ĠAlthough": 3244,
      "Ġfight": 3245,
      "ĠHer": 3246,
      "Ġbase": 3247,
      "isms": 3248,
      "Ġagree": 3249,
      "ĠHistory": 3250,
      "Ġquant": 3251,
      "rogen": 3252,
      "Ġstrateg": 3253,
      "cks": 3254,
      "Ġsoftware": 3255,
      "bit": 3256,
      "Ġones": 3257,
      "Ġworkers": 3258,
      "ription": 3259,
      "Ġestablish": 3260,
      "Ġlargest": 3261,
      "Ġsituation": 3262,
      "co": 3263,
      "Ġord": 3264,
      "rote": 3265,
      "Ġfeatures": 3266,
      "Ġadults": 3267,
      "ĠSm": 3268,
      "used": 3269,
      "ĠDav": 3270,
      "arian": 3271,
      "Ġremains": 3272,
      "uous": 3273,
      "omb": 3274,
      "ĠChinese": 3275,
      "âĢĿ.": 3276,
      "And": 3277,
      "Ġsouth": 3278,
      "ĠGree": 3279,
      "Ġlocated": 3280,
      "Ġstra": 3281,
      "Ġrates": 3282,
      "ologies": 3283,
      "wise": 3284,
      "Ġfinancial": 3285,
      "Ġwrite": 3286,
      "orders": 3287,
      "Ġnearly": 3288,
      "med": 3289,
      "ĠApril": 3290,
      "Ġexact": 3291,
      "Ġcarry": 3292,
      "ĠBar": 3293,
      "Ġgoal": 3294,
      "Ġjo": 3295,
      "Ġdevice": 3296,
      "ovember": 3297,
      "come": 3298,
      "Ġadop": 3299,
      "Ġaccur": 3300,
      "itect": 3301,
      "ĠTra": 3302,
      "ĠEngland": 3303,
      "Ġlength": 3304,
      "ĠMon": 3305,
      "Ġgot": 3306,
      "Ġinfluence": 3307,
      "Ġplaces": 3308,
      "inct": 3309,
      "Ġenjoy": 3310,
      "80": 3311,
      "EN": 3312,
      "ĠOf": 3313,
      "ĠTw": 3314,
      "Ġagricult": 3315,
      "ĠGovern": 3316,
      "Ġtests": 3317,
      "ica": 3318,
      "Ġdisp": 3319,
      "Ġhous": 3320,
      "sect": 3321,
      "Ġremain": 3322,
      "ulated": 3323,
      "Ġtransl": 3324,
      "Ġhands": 3325,
      "IV": 3326,
      "Ġegg": 3327,
      "fort": 3328,
      "ondon": 3329,
      "Ġdevices": 3330,
      "Ġmiles": 3331,
      "Ġmill": 3332,
      "Ġreach": 3333,
      "ĠPress": 3334,
      "Ġborn": 3335,
      "Ġfederal": 3336,
      "izations": 3337,
      "Ġsn": 3338,
      "iles": 3339,
      "Ġrare": 3340,
      "Ġ,": 3341,
      "cember": 3342,
      "ĠReg": 3343,
      "Ġsustain": 3344,
      "Ġ21": 3345,
      "Ġweeks": 3346,
      "ĠKe": 3347,
      "Ġexcept": 3348,
      "ĠRiver": 3349,
      "Ġlaws": 3350,
      "Ġproperty": 3351,
      "Ġlines": 3352,
      "Ġrequires": 3353,
      "vest": 3354,
      "alled": 3355,
      "itis": 3356,
      "Ġobjects": 3357,
      "ĠUs": 3358,
      "iber": 3359,
      "Ġtold": 3360,
      "ĠPresident": 3361,
      "equ": 3362,
      "ĠSw": 3363,
      "Ġdemand": 3364,
      "Ġleaves": 3365,
      "Ġshall": 3366,
      "ĠProg": 3367,
      "pper": 3368,
      "Ġbecomes": 3369,
      "PA": 3370,
      "60": 3371,
      "odies": 3372,
      "Ġimages": 3373,
      "ira": 3374,
      "cohol": 3375,
      "ĠFirst": 3376,
      "Ġsymb": 3377,
      "entially": 3378,
      "ĠWash": 3379,
      "ĠHere": 3380,
      "Ġsolution": 3381,
      "idents": 3382,
      "Ġcitiz": 3383,
      "ĠMy": 3384,
      "ĠCanada": 3385,
      "Ġ2008": 3386,
      "Ġbeaut": 3387,
      "rag": 3388,
      "Ġcosts": 3389,
      "Ġcool": 3390,
      "Ġcoast": 3391,
      "Ġbott": 3392,
      "Ġep": 3393,
      "Ġvict": 3394,
      "Ġdead": 3395,
      "iece": 3396,
      "ĠCity": 3397,
      "ĠAssoci": 3398,
      "'re": 3399,
      "oud": 3400,
      "anish": 3401,
      "Ġbasis": 3402,
      "Ġveh": 3403,
      "Ġefforts": 3404,
      "Ġwa": 3405,
      "king": 3406,
      "Ġsaw": 3407,
      "ĠServ": 3408,
      "Ġang": 3409,
      "Ġwaste": 3410,
      "lin": 3411,
      "ĠCong": 3412,
      "Ġcommand": 3413,
      "Ġpan": 3414,
      "Ġimag": 3415,
      "Ġhimself": 3416,
      "Ġimportance": 3417,
      "Ġcommunication": 3418,
      "aul": 3419,
      "Ġsummer": 3420,
      "Ġfather": 3421,
      "life": 3422,
      "Ġmention": 3423,
      "Ġstru": 3424,
      "Ġsurround": 3425,
      "sec": 3426,
      "att": 3427,
      "ĠAmericans": 3428,
      "Ġmonitor": 3429,
      "Ġeating": 3430,
      "atur": 3431,
      "ipment": 3432,
      "resh": 3433,
      "Ġtable": 3434,
      "Ġsugar": 3435,
      "ĠIsrael": 3436,
      "Ġlegal": 3437,
      "Ġbul": 3438,
      "Ġapplications": 3439,
      "omy": 3440,
      "uments": 3441,
      "ĠMc": 3442,
      "cles": 3443,
      "Ġsites": 3444,
      "Ġtypically": 3445,
      "year": 3446,
      "Ġcenter": 3447,
      "Ġeyes": 3448,
      "Ġfit": 3449,
      "Ġdied": 3450,
      "Ġforces": 3451,
      "Ġcou": 3452,
      "water": 3453,
      "alt": 3454,
      "Ġresponsible": 3455,
      "ibrary": 3456,
      "Ġconstit": 3457,
      "imal": 3458,
      "Ġexamples": 3459,
      "Ġrapid": 3460,
      "Ġtechniques": 3461,
      "24": 3462,
      "Ġprojects": 3463,
      "Ġtrade": 3464,
      "apter": 3465,
      "IT": 3466,
      "Ġder": 3467,
      "Ġcreating": 3468,
      "Ġdigital": 3469,
      "ocol": 3470,
      "Ġconstruction": 3471,
      "Ġdiabetes": 3472,
      "Ġ2013": 3473,
      "Ġrespond": 3474,
      "estic": 3475,
      "ĠJanuary": 3476,
      "Ġhope": 3477,
      "ĠEducation": 3478,
      "Ġappropriate": 3479,
      "Ġtesting": 3480,
      "Ġcontroll": 3481,
      "Ġmix": 3482,
      "Ġking": 3483,
      "rieved": 3484,
      "izes": 3485,
      "Ġmole": 3486,
      "ipl": 3487,
      "Ġmemory": 3488,
      "Ġult": 3489,
      "Ġprocesses": 3490,
      "Ġbacteria": 3491,
      "Ġfile": 3492,
      "ĠSan": 3493,
      "ĠOctober": 3494,
      "Ġeverything": 3495,
      "Ġfinal": 3496,
      "inated": 3497,
      "inate": 3498,
      "Ġrecently": 3499,
      "Ġbeyond": 3500,
      "Ġtit": 3501,
      "ĠFrom": 3502,
      "Ġfriends": 3503,
      "ests": 3504,
      "Ġadj": 3505,
      "ding": 3506,
      "Ġtherapy": 3507,
      "Ġnothing": 3508,
      "Ġautom": 3509,
      "Ġanything": 3510,
      "Ġeconomy": 3511,
      "Ġmis": 3512,
      "Ġcultural": 3513,
      "ype": 3514,
      "iar": 3515,
      "AS": 3516,
      "Ġdestro": 3517,
      "Ġadapt": 3518,
      "Ġfollowed": 3519,
      "Ġguid": 3520,
      "aid": 3521,
      "Ġgives": 3522,
      "Ġcrop": 3523,
      "Ġpractices": 3524,
      "uit": 3525,
      "These": 3526,
      "ĠPol": 3527,
      "Ġbenefit": 3528,
      "ĠDay": 3529,
      "Ġteacher": 3530,
      "ĠSeptember": 3531,
      "cial": 3532,
      "Ġmiddle": 3533,
      "Ġceleb": 3534,
      "Ġwebsite": 3535,
      "back": 3536,
      "Ġmid": 3537,
      "199": 3538,
      "Ġanti": 3539,
      "Ġconnect": 3540,
      "fl": 3541,
      "Ġ2007": 3542,
      "Ġice": 3543,
      "Ġcam": 3544,
      "Ġsett": 3545,
      "Ġdepend": 3546,
      "Ġpen": 3547,
      "Ġgradu": 3548,
      "ĠFeb": 3549,
      "ama": 3550,
      "Ġcontinued": 3551,
      "edia": 3552,
      "Ġexpected": 3553,
      "ĠPark": 3554,
      "Ġformer": 3555,
      "Ġadvant": 3556,
      "By": 3557,
      "ĠCounty": 3558,
      "Ġproviding": 3559,
      "ĠNovember": 3560,
      "aught": 3561,
      "Ġten": 3562,
      "Ġolder": 3563,
      "Ġunc": 3564,
      "Ġpet": 3565,
      "Ġfuel": 3566,
      "isl": 3567,
      "Ġdate": 3568,
      "Ġreasons": 3569,
      "ĠJournal": 3570,
      "gypt": 3571,
      "Ġson": 3572,
      "Ġ:": 3573,
      "ĠArch": 3574,
      "Ġspirit": 3575,
      "Ġrules": 3576,
      "can": 3577,
      "enge": 3578,
      "Ġfear": 3579,
      ");": 3580,
      "Ġ193": 3581,
      "Ġcompletely": 3582,
      "Ġapprox": 3583,
      "Ġlocation": 3584,
      "Ġchoose": 3585,
      "Ġcode": 3586,
      "rab": 3587,
      "Ġsuccessful": 3588,
      "strial": 3589,
      "ĠWashington": 3590,
      "Ġinstru": 3591,
      "Ġasked": 3592,
      "ĠWilliam": 3593,
      "book": 3594,
      "Ġaffected": 3595,
      "Ġneigh": 3596,
      "Ġreceive": 3597,
      "ham": 3598,
      "head": 3599,
      "ony": 3600,
      "Ġcold": 3601,
      "ĠDecember": 3602,
      "Ġinsp": 3603,
      "Ġusers": 3604,
      "Ġsmaller": 3605,
      "mosp": 3606,
      "Ġund": 3607,
      "oe": 3608,
      "Ġelectr": 3609,
      "ĠLondon": 3610,
      "Ġweb": 3611,
      "Ġcourt": 3612,
      "edom": 3613,
      "ĠCoun": 3614,
      "Ġeffort": 3615,
      "ED": 3616,
      "Ġwinter": 3617,
      "ĠDevelop": 3618,
      "Ġuser": 3619,
      "Ġ23": 3620,
      "ky": 3621,
      "illing": 3622,
      "Ġstage": 3623,
      "ios": 3624,
      "ĠIS": 3625,
      "Ġgenetic": 3626,
      "ĠDNA": 3627,
      "ĠGreat": 3628,
      "Ġwrote": 3629,
      "ĠRed": 3630,
      "Ġrain": 3631,
      "Ex": 3632,
      "Ġgoes": 3633,
      "ought": 3634,
      "Ġcollection": 3635,
      "aur": 3636,
      "ford": 3637,
      "aters": 3638,
      "iples": 3639,
      "ocks": 3640,
      "Ġdegree": 3641,
      "Ġmodels": 3642,
      "Ġcurrently": 3643,
      "Ġopportunity": 3644,
      "Ġtrying": 3645,
      "ĠVal": 3646,
      "Ġbillion": 3647,
      "Ġalone": 3648,
      "ĠLear": 3649,
      "Ġstandards": 3650,
      "Ġcalcul": 3651,
      "Ġscreen": 3652,
      "ĠSociety": 3653,
      "ĠSystem": 3654,
      "Ġnamed": 3655,
      "While": 3656,
      "Ġbreat": 3657,
      "With": 3658,
      "Ġinteresting": 3659,
      "ĠCom": 3660,
      "Ġmaintain": 3661,
      "Ġvia": 3662,
      "ribute": 3663,
      "Ġorganization": 3664,
      "ĠLaw": 3665,
      "ĠEven": 3666,
      "airs": 3667,
      "Ġconsequ": 3668,
      "Ġcru": 3669,
      "ords": 3670,
      "Ġpoly": 3671,
      "Ġsch": 3672,
      "vert": 3673,
      "exic": 3674,
      "AL": 3675,
      "rees": 3676,
      "ĠRoman": 3677,
      "Ġallowed": 3678,
      "off": 3679,
      "Ġwon": 3680,
      "udd": 3681,
      "Ġpregn": 3682,
      "Ġbeg": 3683,
      "lam": 3684,
      "Ġeight": 3685,
      "Ġconflic": 3686,
      "Ġmeasures": 3687,
      "ĠTechn": 3688,
      "Ġmember": 3689,
      "ev": 3690,
      "ĠAccording": 3691,
      "Ġbehavi": 3692,
      "Ġexec": 3693,
      "EC": 3694,
      "Ġearlier": 3695,
      "load": 3696,
      "Ġyourself": 3697,
      "Ġdiscovered": 3698,
      "Ġwoman": 3699,
      "Ġoccurs": 3700,
      "Ġhyp": 3701,
      "ĠRetrieved": 3702,
      "Ġweather": 3703,
      "ogen": 3704,
      "men": 3705,
      "Ġleave": 3706,
      "Ġrecommend": 3707,
      "Ġpow": 3708,
      "ĠEast": 3709,
      "mitted": 3710,
      "itable": 3711,
      "Ġ60": 3712,
      "ara": 3713,
      "Ġbirds": 3714,
      "iable": 3715,
      "Ġequipment": 3716,
      "ĠTrans": 3717,
      "oday": 3718,
      "Ġden": 3719,
      "Ġmiss": 3720,
      "Ġmax": 3721,
      "Ġeveryone": 3722,
      "ruary": 3723,
      "26": 3724,
      "Ġpredict": 3725,
      "icate": 3726,
      "Ġgir": 3727,
      "urg": 3728,
      "ĠInc": 3729,
      "Ġstrength": 3730,
      "emy": 3731,
      "ĠOur": 3732,
      "Ġvill": 3733,
      "ocr": 3734,
      "Ġshape": 3735,
      "29": 3736,
      "Ġconstant": 3737,
      "Ġscale": 3738,
      "ĠDis": 3739,
      "Ġformed": 3740,
      "AC": 3741,
      "Ġplanet": 3742,
      "encies": 3743,
      "ĠEgypt": 3744,
      "Ġdeal": 3745,
      "Ġsequ": 3746,
      "Ġdrugs": 3747,
      "Ġapplied": 3748,
      "oration": 3749,
      "Ġoccup": 3750,
      "tery": 3751,
      "Ġplaced": 3752,
      "ĠHigh": 3753,
      "time": 3754,
      "Ġswe": 3755,
      "Ġteach": 3756,
      "Ġpurch": 3757,
      "Ġperfect": 3758,
      "Ġoverall": 3759,
      "ĠGermany": 3760,
      "Ġrise": 3761,
      "Ġexposure": 3762,
      "ibly": 3763,
      "wide": 3764,
      "que": 3765,
      "Ġdifferences": 3766,
      "Ġcoming": 3767,
      "Ġroom": 3768,
      "Ġstatus": 3769,
      "Ġrule": 3770,
      "odes": 3771,
      "ĠChurch": 3772,
      "ĠCommun": 3773,
      "Ġhon": 3774,
      "Ġtele": 3775,
      "ensity": 3776,
      "Ġcommonly": 3777,
      "ĠHouse": 3778,
      "70": 3779,
      "Ġvisual": 3780,
      "more": 3781,
      "Ġsteps": 3782,
      "craft": 3783,
      "uff": 3784,
      "ellig": 3785,
      "Ġcateg": 3786,
      "ĠRead": 3787,
      "Ġsect": 3788,
      "ĠSim": 3789,
      "Ġcommerc": 3790,
      "ĠDuring": 3791,
      "Ġisn": 3792,
      "irection": 3793,
      "Ġwond": 3794,
      "Ġtrack": 3795,
      "Ġhistorical": 3796,
      "Ġreduced": 3797,
      "Ġfair": 3798,
      "urance": 3799,
      "ĠThen": 3800,
      "Ġprofessional": 3801,
      "Ġmajority": 3802,
      "cont": 3803,
      "Ġroad": 3804,
      "hemat": 3805,
      "phas": 3806,
      "bl": 3807,
      "Ġassign": 3808,
      "ĠAustralia": 3809,
      "Ġtou": 3810,
      "Ġmob": 3811,
      "ula": 3812,
      "ĠFin": 3813,
      "Ġgave": 3814,
      "Ġacqu": 3815,
      "Ġperhaps": 3816,
      "known": 3817,
      "iful": 3818,
      "\",": 3819,
      "Ġdidn": 3820,
      "ospital": 3821,
      "Ġillness": 3822,
      "Ġrock": 3823,
      "Ġshowed": 3824,
      "Ġnote": 3825,
      "Ġincreases": 3826,
      "Pro": 3827,
      "Ġtox": 3828,
      "ĠAlso": 3829,
      "Some": 3830,
      "Ġfruit": 3831,
      "ingu": 3832,
      "Ġrich": 3833,
      "ĠMexic": 3834,
      "ĠVir": 3835,
      "Ġvirt": 3836,
      "Ġteeth": 3837,
      "Ġbreast": 3838,
      "aled": 3839,
      "Ġworked": 3840,
      "Ġrob": 3841,
      "Ġtransfer": 3842,
      "unch": 3843,
      "Ġidentified": 3844,
      "Ġpiece": 3845,
      "Ġgold": 3846,
      "rec": 3847,
      "orge": 3848,
      "Ġcontext": 3849,
      "Ġpresence": 3850,
      "Ġchoice": 3851,
      "Ġriver": 3852,
      "Ġenter": 3853,
      "Ġcook": 3854,
      "ĠBecause": 3855,
      "ĠNow": 3856,
      "ĠSocial": 3857,
      "27": 3858,
      "iology": 3859,
      "Ġfully": 3860,
      "itch": 3861,
      "reet": 3862,
      "Ġrelatively": 3863,
      "ĠUnion": 3864,
      "Ġremember": 3865,
      "ĠGeneral": 3866,
      "Ġversion": 3867,
      "ees": 3868,
      "Ġemp": 3869,
      "28": 3870,
      "Ġenh": 3871,
      "Ġcities": 3872,
      "ĠPat": 3873,
      "Ġcry": 3874,
      "Ġpowerful": 3875,
      "Ġmoving": 3876,
      "enty": 3877,
      "force": 3878,
      "ĠProt": 3879,
      "Ġjoint": 3880,
      "Ġphilos": 3881,
      "Ġarchitect": 3882,
      "ĠInst": 3883,
      "Ġalcohol": 3884,
      "Ġappears": 3885,
      "Ġcompar": 3886,
      "Ġelement": 3887,
      "Ġdisplay": 3888,
      "iate": 3889,
      "oted": 3890,
      "Ġillust": 3891,
      "Ġacad": 3892,
      "Ġpeace": 3893,
      "Ġunit": 3894,
      "Ġproperties": 3895,
      "Ġmoment": 3896,
      "Ġatmosp": 3897,
      "Ġcra": 3898,
      "Ġstories": 3899,
      "Ġgiving": 3900,
      "Ġchurch": 3901,
      "aint": 3902,
      "Ġactions": 3903,
      "Ġcontract": 3904,
      "Ġwid": 3905,
      "ĠMod": 3906,
      "ĠBlack": 3907,
      "Ġfert": 3908,
      "Ġsitu": 3909,
      "Ġbaby": 3910,
      "iant": 3911,
      "Ġ28": 3912,
      "Ġexpand": 3913,
      "Ġefficient": 3914,
      "ĠWater": 3915,
      "Ġmachine": 3916,
      "gery": 3917,
      "Ġball": 3918,
      "Ġlimit": 3919,
      "bre": 3920,
      "ken": 3921,
      "Ġnutri": 3922,
      "Ġdat": 3923,
      "ĠAre": 3924,
      "uls": 3925,
      "Ġcapacity": 3926,
      "aign": 3927,
      "âĢĿ,": 3928,
      "Ġconstruct": 3929,
      "Ġsymbol": 3930,
      "ĠSince": 3931,
      "related": 3932,
      "Ġjournal": 3933,
      "Ġchanged": 3934,
      "aste": 3935,
      "Ġfresh": 3936,
      "cious": 3937,
      "osy": 3938,
      "resp": 3939,
      "Ġ2000": 3940,
      "Ġattract": 3941,
      "ĠUse": 3942,
      "rupt": 3943,
      "Ġanx": 3944,
      "iences": 3945,
      "iny": 3946,
      "Ġrunning": 3947,
      "Ġrat": 3948,
      "ĠCouncil": 3949,
      "Ġcitizens": 3950,
      "yd": 3951,
      "Ġdetails": 3952,
      "Ġ26": 3953,
      "Ġpatterns": 3954,
      "ĠPeople": 3955,
      "house": 3956,
      "Ġworth": 3957,
      "Ġoffers": 3958,
      "II": 3959,
      "Ġmouth": 3960,
      "Ġ195": 3961,
      "Ġvision": 3962,
      "Ġexisting": 3963,
      "Ġfactor": 3964,
      "Ġrepe": 3965,
      "ament": 3966,
      "rief": 3967,
      "rehens": 3968,
      "Ġassist": 3969,
      "Ġfunctions": 3970,
      "Ġdefined": 3971,
      "Ġfindings": 3972,
      "Ġsigns": 3973,
      "ĠAng": 3974,
      "HE": 3975,
      "Is": 3976,
      "Ġstrugg": 3977,
      "Ġsurvey": 3978,
      "Ġforward": 3979,
      "ession": 3980,
      "ĠCour": 3981,
      "che": 3982,
      "Ġbound": 3983,
      "Ġimmune": 3984,
      "Ġdestroy": 3985,
      "Ġevolution": 3986,
      "Ġconvers": 3987,
      "ĠJust": 3988,
      "Ġnames": 3989,
      "Ġeducational": 3990,
      "isation": 3991,
      "ternal": 3992,
      "ste": 3993,
      "Ġequal": 3994,
      "ĠPhil": 3995,
      "ĠFebruary": 3996,
      "Ġseparate": 3997,
      "Ġinsect": 3998,
      "Ġmission": 3999,
      "Un": 4000,
      "pris": 4001,
      "Ġfigure": 4002,
      "Ġfemale": 4003,
      "semb": 4004,
      "Ġopportunities": 4005,
      "Ad": 4006,
      "ĠAssociation": 4007,
      "ux": 4008,
      "lege": 4009,
      "rates": 4010,
      "Ġforeign": 4011,
      "Ġseven": 4012,
      "ero": 4013,
      "Ġbank": 4014,
      "Ġeventually": 4015,
      "ĠJapanese": 4016,
      "Ġthousands": 4017,
      "eding": 4018,
      "Ġlearned": 4019,
      "Ġhuge": 4020,
      "iring": 4021,
      "Ġresistance": 4022,
      "Ġdetect": 4023,
      "Ġbelief": 4024,
      "Ġevalu": 4025,
      "Ġqual": 4026,
      "ĠCongress": 4027,
      "Ġmut": 4028,
      "Ġincor": 4029,
      "Ġtask": 4030,
      "Ġmig": 4031,
      "Ġinstance": 4032,
      "hors": 4033,
      "ĠUN": 4034,
      "Ġfilm": 4035,
      "Ġmap": 4036,
      "Ġ2015": 4037,
      "ĠProf": 4038,
      "Ġweak": 4039,
      "ĠRo": 4040,
      "ĠNA": 4041,
      "Ġsuggests": 4042,
      "abilities": 4043,
      "Ġpassed": 4044,
      "They": 4045,
      "Ġoffice": 4046,
      "Ġpicture": 4047,
      "iance": 4048,
      "Ġstar": 4049,
      "Ġfamous": 4050,
      "part": 4051,
      "ĠSee": 4052,
      "Ġ22": 4053,
      "Ġnutrition": 4054,
      "ĠJewish": 4055,
      "Ġdistance": 4056,
      "ĠEnvironment": 4057,
      "Ġbra": 4058,
      "Ġdirection": 4059,
      "ĠTheir": 4060,
      "Ġchance": 4061,
      "RE": 4062,
      "ogle": 4063,
      "Ġreports": 4064,
      "Ġbelieved": 4065,
      "Ġ2006": 4066,
      "Ġchallenges": 4067,
      "icip": 4068,
      "omas": 4069,
      "Ġpp": 4070,
      "asion": 4071,
      "Ġdisorder": 4072,
      "eech": 4073,
      "Ġmal": 4074,
      "Ġemissions": 4075,
      "Ġplans": 4076,
      "orage": 4077,
      "Ġregions": 4078,
      "Ġoptions": 4079,
      "Ġgarden": 4080,
      "ifically": 4081,
      "Ġtissue": 4082,
      "Ġkid": 4083,
      "ĠProgram": 4084,
      "Ġguide": 4085,
      "Ġconsumption": 4086,
      "Ġmoved": 4087,
      "Ġcomponents": 4088,
      "Ġantib": 4089,
      "Ġnuclear": 4090,
      "ĠConf": 4091,
      "Ġbalance": 4092,
      "pective": 4093,
      "Ġinnov": 4094,
      "Ġâ": 4095,
      "Ġing": 4096,
      "Ġassum": 4097,
      "DA": 4098,
      "ĠEach": 4099,
      "Ġhighest": 4100,
      "After": 4101,
      "Ġtechnologies": 4102,
      "90": 4103,
      "Ġstaff": 4104,
      "pped": 4105,
      "Ġeffic": 4106,
      "Ġblue": 4107,
      "ographic": 4108,
      "Ġ27": 4109,
      "Ġapply": 4110,
      "cast": 4111,
      "Ġimmediately": 4112,
      "ĠWestern": 4113,
      "Ġincome": 4114,
      "Ġ+": 4115,
      "Ġexplain": 4116,
      "Ġbox": 4117,
      "Ġopin": 4118,
      "All": 4119,
      "uild": 4120,
      "rick": 4121,
      "Ġinstruct": 4122,
      "Ġvo": 4123,
      "ĠInternet": 4124,
      "Ġfriend": 4125,
      "Ġmuscle": 4126,
      "Ġ2016": 4127,
      "Ġapproximately": 4128,
      "Ġgain": 4129,
      "Ġprice": 4130,
      "Ġload": 4131,
      "Ġcand": 4132,
      "Ġfavor": 4133,
      "ĠChe": 4134,
      "Ġstim": 4135,
      "Ġhappen": 4136,
      "ald": 4137,
      "eces": 4138,
      "ologist": 4139,
      "Ġnative": 4140,
      "ĠUK": 4141,
      "Ġabsor": 4142,
      "Ġwrong": 4143,
      "Ġdivid": 4144,
      "mark": 4145,
      "Ġstrategies": 4146,
      "atin": 4147,
      "tee": 4148,
      "Ġsac": 4149,
      "Ġtruth": 4150,
      "ĠCur": 4151,
      "Ġstructures": 4152,
      "Ġcollabor": 4153,
      "ĠMor": 4154,
      "ĠAut": 4155,
      "Ġextremely": 4156,
      "Ġclassroom": 4157,
      "OS": 4158,
      "Be": 4159,
      "su": 4160,
      "Ġtreated": 4161,
      "era": 4162,
      "ĠDavid": 4163,
      "ĠSur": 4164,
      "Ġestimated": 4165,
      "Ġurban": 4166,
      "char": 4167,
      "ĠInter": 4168,
      "Ġdepression": 4169,
      "Ġwatch": 4170,
      "Ġlegisl": 4171,
      "ĠFrance": 4172,
      "Ġactual": 4173,
      "Ġheavy": 4174,
      "Ġgoals": 4175,
      "Ġcarried": 4176,
      "Ġcommercial": 4177,
      "iox": 4178,
      "ĠGreen": 4179,
      "Ġobserved": 4180,
      "Ġhousehold": 4181,
      "Ġexperiences": 4182,
      "Ġphen": 4183,
      "lor": 4184,
      "Ġstyle": 4185,
      "Ġexhib": 4186,
      "Ġvitamin": 4187,
      "Ġclinical": 4188,
      "Ġdistribution": 4189,
      "Ġconnected": 4190,
      "Ġdim": 4191,
      "change": 4192,
      "Ġsexual": 4193,
      "Ġmag": 4194,
      "oma": 4195,
      "Ġexplore": 4196,
      "Ġtopic": 4197,
      "ĠPublic": 4198,
      "Ġchallenge": 4199,
      "Ġbed": 4200,
      "ĠBra": 4201,
      "Ġparty": 4202,
      "wards": 4203,
      "Ġorganizations": 4204,
      "hetic": 4205,
      "Ġexcess": 4206,
      "Ġemphas": 4207,
      "Ġboard": 4208,
      "Ġrecords": 4209,
      "cular": 4210,
      "Ġpopulations": 4211,
      "Ġgeneration": 4212,
      "Ġspring": 4213,
      "Ġfeature": 4214,
      "Ġdecades": 4215,
      "Ġpresident": 4216,
      "antic": 4217,
      "ta": 4218,
      "nes": 4219,
      "Ġdyn": 4220,
      "Ġplanning": 4221,
      "Ġbodies": 4222,
      "ĠThus": 4223,
      "enth": 4224,
      "Ar": 4225,
      "ĠPal": 4226,
      "Ġmilk": 4227,
      "Ġesc": 4228,
      "Ġbuildings": 4229,
      "US": 4230,
      "Ġpick": 4231,
      "key": 4232,
      "Ġeasier": 4233,
      "rome": 4234,
      "omic": 4235,
      "Ġcopy": 4236,
      "ĠTur": 4237,
      "ĠGovernment": 4238,
      "Ġbecoming": 4239,
      "Ġindustrial": 4240,
      "ĠJames": 4241,
      "Ġvary": 4242,
      "Ġelectricity": 4243,
      "otes": 4244,
      "ĠMich": 4245,
      "Ġmo": 4246,
      "iment": 4247,
      "igen": 4248,
      "Ġitems": 4249,
      "ĠPlan": 4250,
      "roup": 4251,
      "Ġfields": 4252,
      "care": 4253,
      "Ġslight": 4254,
      "apers": 4255,
      "ĠDon": 4256,
      "Ġspect": 4257,
      "Ġutil": 4258,
      "Ġhair": 4259,
      "Ġdecisions": 4260,
      "Ġfig": 4261,
      "ean": 4262,
      "clus": 4263,
      "ygen": 4264,
      "Ġrelease": 4265,
      "ĠRel": 4266,
      "ĠVol": 4267,
      "Ġsetting": 4268,
      "Ġalternative": 4269,
      "ares": 4270,
      "Ġisland": 4271,
      "Ġign": 4272,
      "rest": 4273,
      "Ġreference": 4274,
      "Ġmedicine": 4275,
      "Ġbran": 4276,
      "Ġgene": 4277,
      "ĠFood": 4278,
      "Ġhomes": 4279,
      "iated": 4280,
      "Ġ2005": 4281,
      "Ġlived": 4282,
      "ĠDevelopment": 4283,
      "unction": 4284,
      "Ġnotes": 4285,
      "bed": 4286,
      "Ġgod": 4287,
      "ĠCollege": 4288,
      "ube": 4289,
      "Ġmale": 4290,
      "ander": 4291,
      "Ġneu": 4292,
      "Ġstarting": 4293,
      "ulf": 4294,
      "Ġgraph": 4295,
      "Ġdisorders": 4296,
      "Ġfreedom": 4297,
      "Ġtour": 4298,
      "Ġelim": 4299,
      "porary": 4300,
      "35": 4301,
      "Ġliqu": 4302,
      "Ġconv": 4303,
      "ĠNet": 4304,
      "ĠSpanish": 4305,
      "Ġintroduced": 4306,
      "ĠIr": 4307,
      "ĠDec": 4308,
      "Ġaspects": 4309,
      "Ġletter": 4310,
      "ĠHuman": 4311,
      "Ġoperations": 4312,
      "elines": 4313,
      "ias": 4314,
      "Ġnovel": 4315,
      "Ġmer": 4316,
      "Ġreleased": 4317,
      "Ġserve": 4318,
      "Ġconnection": 4319,
      "Ġgames": 4320,
      "Ġpresented": 4321,
      "Ġreality": 4322,
      "ĠAv": 4323,
      "Ġappe": 4324,
      "ped": 4325,
      "Ġfrequently": 4326,
      "Ġwidely": 4327,
      "45": 4328,
      "Ġdesp": 4329,
      "tered": 4330,
      "ĠRepublic": 4331,
      "uses": 4332,
      "Ġrequirements": 4333,
      "Ġbottom": 4334,
      "Ġcausing": 4335,
      "do": 4336,
      "Ġnoted": 4337,
      "Ġmetal": 4338,
      "Ġ190": 4339,
      "Ġstore": 4340,
      "Ġnumerous": 4341,
      "ressive": 4342,
      "Ġgets": 4343,
      "Ph": 4344,
      "Ġfix": 4345,
      "Ġdoub": 4346,
      "Ġliterature": 4347,
      "ida": 4348,
      "stitution": 4349,
      "ingly": 4350,
      "iding": 4351,
      "Ġcycle": 4352,
      "Ġchronic": 4353,
      "Ġplastic": 4354,
      "Ġlayer": 4355,
      "works": 4356,
      "Ġcombination": 4357,
      "Ġresource": 4358,
      "Ġcontrast": 4359,
      "Ġexperiment": 4360,
      "ĠLord": 4361,
      "Ġindependent": 4362,
      "Ġoutput": 4363,
      "Ġtim": 4364,
      "Ġsignificantly": 4365,
      "Ġmeat": 4366,
      "Ġkilled": 4367,
      "Ġwin": 4368,
      "ructure": 4369,
      "olid": 4370,
      "Ġpartners": 4371,
      "ollow": 4372,
      "ognitive": 4373,
      "Ġtemperatures": 4374,
      "Ġfaith": 4375,
      "Ġterrit": 4376,
      "Ġclearly": 4377,
      "Ġstream": 4378,
      "Ġsave": 4379,
      "ij": 4380,
      "ĠMuseum": 4381,
      "Ġconducted": 4382,
      "ĠMic": 4383,
      "ĠOb": 4384,
      "Ġagg": 4385,
      "Ġship": 4386,
      "Ġhear": 4387,
      "oting": 4388,
      "ĠMat": 4389,
      "ĠSpec": 4390,
      "Ġphysic": 4391,
      "amental": 4392,
      "Ġ29": 4393,
      "Ġbattle": 4394,
      "erate": 4395,
      "Ġrot": 4396,
      "erved": 4397,
      "Ġalg": 4398,
      "Ġturned": 4399,
      "essel": 4400,
      "Ġannual": 4401,
      "Ġcovered": 4402,
      "ĠAir": 4403,
      "opy": 4404,
      "ĠUnder": 4405,
      "Ġ80": 4406,
      "essor": 4407,
      "Ġbone": 4408,
      "ophy": 4409,
      "ulum": 4410,
      "Ġcampaign": 4411,
      "ager": 4412,
      "Ġcollege": 4413,
      "Ġrisks": 4414,
      "zz": 4415,
      "met": 4416,
      "Ġtrig": 4417,
      "ii": 4418,
      "ĠOff": 4419,
      "ĠPaul": 4420,
      "rant": 4421,
      "atically": 4422,
      "ously": 4423,
      "Ġdrop": 4424,
      "ĠOver": 4425,
      "CC": 4426,
      "Ġvul": 4427,
      "Ġpolicies": 4428,
      "Ġocean": 4429,
      "Ġdiscussion": 4430,
      "icial": 4431,
      "ss": 4432,
      "Ġdogs": 4433,
      "bal": 4434,
      "Ġauthors": 4435,
      "Ġassessment": 4436,
      "Ġtum": 4437,
      "Ġanyone": 4438,
      "lick": 4439,
      "Ġmessage": 4440,
      "Ġ2014": 4441,
      "Ġglass": 4442,
      "Ġshap": 4443,
      "rete": 4444,
      "leg": 4445,
      "Ġchanging": 4446,
      "Ġhappens": 4447,
      "ĠChildren": 4448,
      "AM": 4449,
      "EM": 4450,
      "Ġtrust": 4451,
      "ologists": 4452,
      "Ġremove": 4453,
      "Ġpi": 4454,
      "asks": 4455,
      "Ġgrant": 4456,
      "78": 4457,
      "ilit": 4458,
      "Ġisol": 4459,
      "ĠIsland": 4460,
      "Ġstatement": 4461,
      "Ġfinding": 4462,
      "Ġthr": 4463,
      "Ġroot": 4464,
      "anging": 4465,
      "33": 4466,
      "Äģ": 4467,
      "olved": 4468,
      "ĠRev": 4469,
      "Ġflood": 4470,
      "Ġresulting": 4471,
      "erences": 4472,
      "Ġnorthern": 4473,
      "ĠLet": 4474,
      "Ġprefer": 4475,
      "Ġrecommended": 4476,
      "ria": 4477,
      "Ġdangerous": 4478,
      "Ġupper": 4479,
      "Ġwhom": 4480,
      "ieties": 4481,
      "ĠDes": 4482,
      "Ġmeeting": 4483,
      "atform": 4484,
      "ĠWeb": 4485,
      "onic": 4486,
      "Ġstorage": 4487,
      "Ġperformed": 4488,
      "tical": 4489,
      "Ġhom": 4490,
      "Ġcredit": 4491,
      "Ġtechnique": 4492,
      "ishing": 4493,
      "Ġradio": 4494,
      "Ġviolence": 4495,
      "Ġsample": 4496,
      "Ġorganic": 4497,
      "ĠGeorge": 4498,
      "Sh": 4499,
      "orial": 4500,
      "ĠMary": 4501,
      "Ġserved": 4502,
      "ĠSun": 4503,
      "Ġbeautiful": 4504,
      "roph": 4505,
      "ago": 4506,
      "Ġ2017": 4507,
      "Ġparticipants": 4508,
      "Ġiron": 4509,
      "Ġcore": 4510,
      "Ġnor": 4511,
      "Ġunivers": 4512,
      "Ġtrib": 4513,
      "Ġfine": 4514,
      "rog": 4515,
      "Ġgrass": 4516,
      "Ġupd": 4517,
      "Ġcircum": 4518,
      "Ġinterpret": 4519,
      "ĠGreek": 4520,
      "Ġhelped": 4521,
      "Ġmotion": 4522,
      "Ġminor": 4523,
      "ĠSam": 4524,
      "Ġdrive": 4525,
      "Ġradiation": 4526,
      "Ġexcell": 4527,
      "ĠFound": 4528,
      "Ġreb": 4529,
      "ĠBel": 4530,
      "ĠOrgan": 4531,
      "ception": 4532,
      "ressed": 4533,
      "Ġready": 4534,
      "Ġdegrees": 4535,
      "onds": 4536,
      "othes": 4537,
      "ĠMount": 4538,
      "Ġwanted": 4539,
      "Ġpreviously": 4540,
      "raction": 4541,
      "ault": 4542,
      "Ġexactly": 4543,
      "Ġvessel": 4544,
      "Ġcomprehens": 4545,
      "Ġbuy": 4546,
      "ĠST": 4547,
      "Ġbelong": 4548,
      "ĠDem": 4549,
      "According": 4550,
      "raw": 4551,
      "ocal": 4552,
      "Ġeggs": 4553,
      "iveness": 4554,
      "Ġreferred": 4555,
      "Ġsouthern": 4556,
      "Ġlic": 4557,
      "Ġintellig": 4558,
      "Ġconfirm": 4559,
      "ĠArab": 4560,
      "Ġdistinct": 4561,
      "ĠCath": 4562,
      "ET": 4563,
      "Ġmel": 4564,
      "Ġrelationships": 4565,
      "Ġvictim": 4566,
      "isher": 4567,
      "Ġinternal": 4568,
      "Ġcounter": 4569,
      "Ġsand": 4570,
      "Ġsurgery": 4571,
      "Ġdescribe": 4572,
      "Ġfeeling": 4573,
      "Ġprinciples": 4574,
      "Ġdetermined": 4575,
      "Ġcharacteristics": 4576,
      "ategy": 4577,
      "Ġinfections": 4578,
      "Ġsem": 4579,
      "oyal": 4580,
      "Ġcast": 4581,
      "Ġessay": 4582,
      "Ġregarding": 4583,
      "ĠKore": 4584,
      "Ġdram": 4585,
      "Ġoxygen": 4586,
      "rans": 4587,
      "Â°": 4588,
      "Here": 4589,
      "Ġkill": 4590,
      "Ġinitial": 4591,
      "ĠWork": 4592,
      "Ġstrategy": 4593,
      "rian": 4594,
      "ping": 4595,
      "Ġencourage": 4596,
      "cers": 4597,
      "However": 4598,
      "Ġremoved": 4599,
      "ĠMal": 4600,
      "Ġinflamm": 4601,
      "itz": 4602,
      "Ġscen": 4603,
      "och": 4604,
      "ĠSen": 4605,
      "road": 4606,
      "Ġarm": 4607,
      "Ġcreation": 4608,
      "Ġspeech": 4609,
      "Ġtrou": 4610,
      "Ġmostly": 4611,
      "Ġplease": 4612,
      "Ġ#": 4613,
      "Ġreducing": 4614,
      "Ġlinked": 4615,
      "Ġded": 4616,
      "Ġanxiety": 4617,
      "mal": 4618,
      "Ġburn": 4619,
      "urt": 4620,
      "Ġunf": 4621,
      "Ġreprodu": 4622,
      "Ġsolutions": 4623,
      "Ġsolid": 4624,
      "board": 4625,
      "Sp": 4626,
      "rier": 4627,
      "Ġproposed": 4628,
      "rum": 4629,
      "Ġoption": 4630,
      "Ġmentioned": 4631,
      "ĠPort": 4632,
      "Ġexperienced": 4633,
      "osystem": 4634,
      "ĠIts": 4635,
      "Ġconservation": 4636,
      "umn": 4637,
      "Ġ186": 4638,
      "ĠIslam": 4639,
      "Ġreligion": 4640,
      "Ġyouth": 4641,
      "Ġunits": 4642,
      "ĠâĢ¦": 4643,
      "ĠOnce": 4644,
      "rows": 4645,
      "Ġround": 4646,
      "Ġvolunt": 4647,
      "ĠWhy": 4648,
      "Ġprepar": 4649,
      "Ġexpression": 4650,
      "Ġpal": 4651,
      "Ġmathemat": 4652,
      "Ġtrend": 4653,
      "well": 4654,
      "Ġspent": 4655,
      "Ġarticles": 4656,
      "Ġinput": 4657,
      "Ġlandsc": 4658,
      "ags": 4659,
      "Ġemail": 4660,
      "Ġobvious": 4661,
      "ĠTherefore": 4662,
      "Many": 4663,
      "PS": 4664,
      "Ġeffectively": 4665,
      "Ġexpert": 4666,
      "Ġ90": 4667,
      "Ġrelevant": 4668,
      "Ġinstitutions": 4669,
      "Ġsynt": 4670,
      "Ġclasses": 4671,
      "Ġspot": 4672,
      "aughter": 4673,
      "Ġwaters": 4674,
      "Ġdepending": 4675,
      "Ġbrother": 4676,
      "ĠMark": 4677,
      "Ġclos": 4678,
      "Ġtransform": 4679,
      "Ġinvent": 4680,
      "with": 4681,
      "Ġdecided": 4682,
      "ek": 4683,
      "uted": 4684,
      "Ġproperly": 4685,
      "That": 4686,
      "Ġhearing": 4687,
      "Ġmanufacture": 4688,
      "Ġinvolve": 4689,
      "ributed": 4690,
      "rations": 4691,
      "Ġsav": 4692,
      "Ġinvolves": 4693,
      "ĠFore": 4694,
      "Ġbackground": 4695,
      "Ġadvantage": 4696,
      "ĠLa": 4697,
      "Ġofficial": 4698,
      "uing": 4699,
      "ĠProject": 4700,
      "Ġsquare": 4701,
      "ortunately": 4702,
      "wood": 4703,
      "Ġlib": 4704,
      "Ġreplace": 4705,
      "Ġhour": 4706,
      "Ġidentity": 4707,
      "kin": 4708,
      "Ġowners": 4709,
      "ras": 4710,
      "Ġhop": 4711,
      "Ġclick": 4712,
      "Ġcharge": 4713,
      "Ġacademic": 4714,
      "Ġdatab": 4715,
      "Ġcris": 4716,
      "Ġremained": 4717,
      "Con": 4718,
      "Ġexperts": 4719,
      "Ġinterested": 4720,
      "eline": 4721,
      "ĠGra": 4722,
      "Ġ2004": 4723,
      "AD": 4724,
      "Ġheard": 4725,
      "Why": 4726,
      "ĠRober": 4727,
      "Ġprocessing": 4728,
      "Ġcalc": 4729,
      "ams": 4730,
      "Ġgenes": 4731,
      "ĠEv": 4732,
      "Ġpret": 4733,
      "Ġmeant": 4734,
      "ĠMuslim": 4735,
      "Ġinjury": 4736,
      "lease": 4737,
      "Ġ2003": 4738,
      "Ġleads": 4739,
      "Ġadvanced": 4740,
      "Ġpromote": 4741,
      "Ġfailure": 4742,
      "ĠBudd": 4743,
      "Ġprepared": 4744,
      "Ġ...": 4745,
      "Ġvulner": 4746,
      "Ġconflict": 4747,
      "Ġmist": 4748,
      "Ġdie": 4749,
      "Ġsaying": 4750,
      "riculum": 4751,
      "ĠSer": 4752,
      "ĠHIV": 4753,
      "riage": 4754,
      "Ġamounts": 4755,
      "ĠMars": 4756,
      "berg": 4757,
      "Ġlung": 4758,
      "uration": 4759,
      "Ġfarmers": 4760,
      "36": 4761,
      "Ġthick": 4762,
      "Ġexposed": 4763,
      "Ġaid": 4764,
      "ancing": 4765,
      "ya": 4766,
      "Ġreached": 4767,
      "Ġsort": 4768,
      "Ġinh": 4769,
      "Ġmanage": 4770,
      "Ġflowers": 4771,
      "place": 4772,
      "ĠDirect": 4773,
      "Our": 4774,
      "Ġwest": 4775,
      "Ġnit": 4776,
      "75": 4777,
      "Ġforced": 4778,
      "ĠTest": 4779,
      "Ġconclud": 4780,
      "Ġvegetables": 4781,
      "ĠSub": 4782,
      "Ġadjust": 4783,
      "Ġpages": 4784,
      "Ġdiss": 4785,
      "rosc": 4786,
      "nam": 4787,
      "Ġincorpor": 4788,
      "Ġgender": 4789,
      "Ġtrad": 4790,
      "ĠAsia": 4791,
      "atric": 4792,
      "Ġpun": 4793,
      "ĠTex": 4794,
      "acing": 4795,
      "Ġmotor": 4796,
      "Ġpric": 4797,
      "Ġgar": 4798,
      "acific": 4799,
      "Ġmanner": 4800,
      "Ġeast": 4801,
      "Ġkept": 4802,
      "iverse": 4803,
      "Ġinstall": 4804,
      "Ġemotional": 4805,
      "astern": 4806,
      "Ġrace": 4807,
      "Ġreaction": 4808,
      "rep": 4809,
      "Ġmainly": 4810,
      "Ġjour": 4811,
      "Ġdro": 4812,
      "Ġtrial": 4813,
      "Ġpieces": 4814,
      "ĠMet": 4815,
      "Ġoperation": 4816,
      "Ġhelping": 4817,
      "ĠAcad": 4818,
      "iling": 4819,
      "Ġsettle": 4820,
      "Ġchemicals": 4821,
      "ĠCourt": 4822,
      "mat": 4823,
      "Ġwealth": 4824,
      "west": 4825,
      "ĠRussian": 4826,
      "ĠHen": 4827,
      "ears": 4828,
      "ĠAtl": 4829,
      "Although": 4830,
      "vision": 4831,
      "standing": 4832,
      "Ġprofession": 4833,
      "Ġdiscover": 4834,
      "Ġconver": 4835,
      "icit": 4836,
      "oviet": 4837,
      "Ġpresc": 4838,
      "Ġpip": 4839,
      "Ġelectrical": 4840,
      "Ġdiagnosis": 4841,
      "Now": 4842,
      "Ġconsult": 4843,
      "Ġpollution": 4844,
      "Ġfinally": 4845,
      "Ġplatform": 4846,
      "za": 4847,
      "Res": 4848,
      "ĠMart": 4849,
      "Ġ70": 4850,
      "Ġvolume": 4851,
      "Ġban": 4852,
      "Ġconcern": 4853,
      "ĠBas": 4854,
      "ndrome": 4855,
      "Ġcontinues": 4856,
      "ifying": 4857,
      "New": 4858,
      "Ġsufficient": 4859,
      "Ġphenomen": 4860,
      "ĠWhite": 4861,
      "Ġlooks": 4862,
      "Ġtoxic": 4863,
      "rus": 4864,
      "alle": 4865,
      "ĠRich": 4866,
      "Ġtechnical": 4867,
      "Ġcenturies": 4868,
      "clusion": 4869,
      "Ġfort": 4870,
      "akers": 4871,
      "CO": 4872,
      "oper": 4873,
      "ĠBer": 4874,
      "Ġcomfort": 4875,
      "arrow": 4876,
      "Ġintended": 4877,
      "Ġengineering": 4878,
      "Ġnotice": 4879,
      "Ġconcepts": 4880,
      "utive": 4881,
      "Ġsupported": 4882,
      "ĠStudents": 4883,
      "Ġsignal": 4884,
      "Ġcoord": 4885,
      "ework": 4886,
      "Ġatmosphere": 4887,
      "Ġcorresp": 4888,
      "Ġconcerns": 4889,
      "ules": 4890,
      "Ġtooth": 4891,
      "Ġallowing": 4892,
      "ĠNASA": 4893,
      "ĠBritain": 4894,
      "which": 4895,
      "Ġsecret": 4896,
      "ixt": 4897,
      "Ġsusp": 4898,
      "vis": 4899,
      "Ġdoll": 4900,
      "rapy": 4901,
      "enced": 4902,
      "Ġleader": 4903,
      "col": 4904,
      "Ġprofessor": 4905,
      "reland": 4906,
      "Ġcompleted": 4907,
      "ĠJer": 4908,
      "Ġparticles": 4909,
      "Ġstorm": 4910,
      "ossible": 4911,
      "itors": 4912,
      "Ġlinks": 4913,
      "Ġ35": 4914,
      "ĠQue": 4915,
      "Ġdefinition": 4916,
      "ormal": 4917,
      "Ġshared": 4918,
      "Ġprimarily": 4919,
      "ĠSpace": 4920,
      "Ġsustainable": 4921,
      "ĠPhys": 4922,
      "Ġsong": 4923,
      "Ġcert": 4924,
      "Ġemergency": 4925,
      "comes": 4926,
      "________": 4927,
      "Ġseek": 4928,
      "Ġoccurred": 4929,
      "Ġoffered": 4930,
      "Ġmaster": 4931,
      "Ġprotected": 4932,
      "Ġflex": 4933,
      "'ll": 4934,
      "Ġraised": 4935,
      "ĠCentral": 4936,
      "ĠSal": 4937,
      "ĠThomas": 4938,
      "Ġgirls": 4939,
      "ĠLife": 4940,
      "rence": 4941,
      "ĠArmy": 4942,
      "ĠService": 4943,
      "ĠMexico": 4944,
      "Ġnav": 4945,
      "ĠMiss": 4946,
      "Ġlargely": 4947,
      "Ġcomment": 4948,
      "Ġideal": 4949,
      "Ġcombined": 4950,
      "mp": 4951,
      "Ġcere": 4952,
      "Ġgrand": 4953,
      "Ġyellow": 4954,
      "From": 4955,
      "ĠCommission": 4956,
      "Ġmorning": 4957,
      "ishes": 4958,
      "olars": 4959,
      "Ġblog": 4960,
      "espite": 4961,
      "Ġpractical": 4962,
      "ĠOld": 4963,
      "Ġwonder": 4964,
      "Ġlesson": 4965,
      "ĠMedicine": 4966,
      "Ġresist": 4967,
      "Ġrecorded": 4968,
      "Ġmotiv": 4969,
      "Ġarmy": 4970,
      "Ġreduction": 4971,
      "Ġlanguages": 4972,
      "acters": 4973,
      "Ġjobs": 4974,
      "oo": 4975,
      "Ġkn": 4976,
      "ĠRem": 4977,
      "omin": 4978,
      "ĠMedical": 4979,
      "Ġhighlight": 4980,
      "Ġdrinking": 4981,
      "38": 4982,
      "Ġappoint": 4983,
      "Americ": 4984,
      "Ġletters": 4985,
      "Cl": 4986,
      "RO": 4987,
      "Ġindicate": 4988,
      "Ġbegins": 4989,
      "Ġhit": 4990,
      "ĠNews": 4991,
      "Ġauthority": 4992,
      "ĠÃ": 4993,
      "Ġbrief": 4994,
      "ĠDi": 4995,
      "Ġfrequency": 4996,
      "Ġprocedure": 4997,
      "ounced": 4998,
      "Ġrenew": 4999,
      "Ġefficiency": 5000,
      "zing": 5001,
      "Ġclaims": 5002,
      "ari": 5003,
      "Ġ189": 5004,
      "going": 5005,
      "Ab": 5006,
      "Ġkinds": 5007,
      "ĠBay": 5008,
      "aturally": 5009,
      "Ġawareness": 5010,
      "Most": 5011,
      "Ġneighbor": 5012,
      "lig": 5013,
      "win": 5014,
      "ĠFre": 5015,
      "Ġpurposes": 5016,
      "Ġstation": 5017,
      "Ġwel": 5018,
      "Ġfoss": 5019,
      "ĠJews": 5020,
      "Ġimproved": 5021,
      "ĠLou": 5022,
      "Ġphase": 5023,
      "Ġgrade": 5024,
      "ĠHel": 5025,
      "Ġthoughts": 5026,
      "otic": 5027,
      "ĠCivil": 5028,
      "ball": 5029,
      "nic": 5030,
      "tes": 5031,
      "roke": 5032,
      "Ġrand": 5033,
      "Ġpark": 5034,
      "Ġ2001": 5035,
      "Ġmath": 5036,
      "oking": 5037,
      "Ġextent": 5038,
      "Ġseeds": 5039,
      "gra": 5040,
      "Ġtaught": 5041,
      "Ġreturned": 5042,
      "osite": 5043,
      "Ġagricultural": 5044,
      "Ġdespite": 5045,
      "Ġpolice": 5046,
      "Ġiniti": 5047,
      "osen": 5048,
      "Ġsnow": 5049,
      "Ġpersons": 5050,
      "Ġcollected": 5051,
      "Ġfluid": 5052,
      "verty": 5053,
      "Ġpros": 5054,
      "Ġsamples": 5055,
      "point": 5056,
      "Ġhorm": 5057,
      "ample": 5058,
      "Ġcoal": 5059,
      "ĠMass": 5060,
      "ĠBi": 5061,
      "'ve": 5062,
      "48": 5063,
      "ĠMr": 5064,
      "Ġstem": 5065,
      "ST": 5066,
      "ĠSoviet": 5067,
      "Ġspecifically": 5068,
      "Ġformation": 5069,
      "uable": 5070,
      "Ã¡": 5071,
      "ĠAD": 5072,
      "Ġsector": 5073,
      "asure": 5074,
      "Ġpoverty": 5075,
      "Ġrandom": 5076,
      "Ġfundamental": 5077,
      "ulating": 5078,
      "Ġexcellent": 5079,
      "what": 5080,
      "Ġtro": 5081,
      "Ġther": 5082,
      "Ġseed": 5083,
      "Ġbud": 5084,
      "ĠVirgin": 5085,
      "Ġbill": 5086,
      "Ġquar": 5087,
      "Ġminimum": 5088,
      "EL": 5089,
      "Ġsin": 5090,
      "Ġmort": 5091,
      "Ġsche": 5092,
      "Ġfacts": 5093,
      "Ġmaximum": 5094,
      "inating": 5095,
      "ĠEvery": 5096,
      "Ġstraight": 5097,
      "Ġhospital": 5098,
      "Ġlov": 5099,
      "Ġflat": 5100,
      "Ġsituations": 5101,
      "ĠDist": 5102,
      "Ġimpacts": 5103,
      "ĠIreland": 5104,
      "Ġexplan": 5105,
      "Ġprison": 5106,
      "Ġdetailed": 5107,
      "tion": 5108,
      "Ġcertainly": 5109,
      "ensus": 5110,
      "100": 5111,
      "ey": 5112,
      "Ġfirm": 5113,
      "ĠElect": 5114,
      "Ġperman": 5115,
      "Ġhttps": 5116,
      "Ġsend": 5117,
      "Ġ2018": 5118,
      "Ġhyper": 5119,
      "Ġhabitat": 5120,
      "Ġfib": 5121,
      "RI": 5122,
      "Ġsurpris": 5123,
      "ING": 5124,
      "Ġattacks": 5125,
      "Ġshowing": 5126,
      "Ġsounds": 5127,
      "Ġcontribute": 5128,
      "iced": 5129,
      "ĠBible": 5130,
      "Ġsyn": 5131,
      "Pl": 5132,
      "Ġ2002": 5133,
      "Ġconsequences": 5134,
      "Ġwet": 5135,
      "enses": 5136,
      "Ġexplains": 5137,
      "Ġfocused": 5138,
      "Ġdu": 5139,
      "Ġmonitoring": 5140,
      "Ġpotentially": 5141,
      "ael": 5142,
      "rich": 5143,
      "Ġrefers": 5144,
      "39": 5145,
      "ĠTwo": 5146,
      "Ġsuggested": 5147,
      "Ġapproaches": 5148,
      "ĠTexas": 5149,
      "aker": 5150,
      "ĠWell": 5151,
      "Ġcharacters": 5152,
      "Ġliquid": 5153,
      "Ġpul": 5154,
      "Ġadvance": 5155,
      "Ġwife": 5156,
      "oral": 5157,
      "Ġfelt": 5158,
      "ses": 5159,
      "Ġdiscrim": 5160,
      "Ġtreatments": 5161,
      "Ġplaying": 5162,
      "hips": 5163,
      "Ġcontinuous": 5164,
      "Ġdri": 5165,
      "ado": 5166,
      "Ġkm": 5167,
      "ĠEnergy": 5168,
      "anges": 5169,
      "field": 5170,
      "Ġcareer": 5171,
      "Ġ1990": 5172,
      "Ġresponsibility": 5173,
      "Ġecosystem": 5174,
      "Ġhaz": 5175,
      "Ġheight": 5176,
      "ested": 5177,
      "Ġconsists": 5178,
      "ht": 5179,
      "Ġshar": 5180,
      "Ġlooked": 5181,
      "Ġkil": 5182,
      "aks": 5183,
      "Ġadvice": 5184,
      "Ġgreatest": 5185,
      "No": 5186,
      "Ġexistence": 5187,
      "Ġinstrument": 5188,
      "Ġdivided": 5189,
      "resents": 5190,
      "ĠFlor": 5191,
      "Ġfif": 5192,
      "Ġstated": 5193,
      "ĠMac": 5194,
      "Ġbright": 5195,
      "rolog": 5196,
      "Ġbiological": 5197,
      "Ġsatis": 5198,
      "olute": 5199,
      "Ġperspective": 5200,
      "Ġfaster": 5201,
      "Ġonto": 5202,
      "Ġotherwise": 5203,
      "Ġcontrolled": 5204,
      "band": 5205,
      "Ġfollows": 5206,
      "Ġsurrounding": 5207,
      "lar": 5208,
      "Ġcognitive": 5209,
      "ĠOp": 5210,
      "Ġmere": 5211,
      "Ġvast": 5212,
      "ĠFurther": 5213,
      "Ġmuscles": 5214,
      "Ġhappened": 5215,
      "Ġaffects": 5216,
      "Ġhundreds": 5217,
      "ĠPacific": 5218,
      "ĠClass": 5219,
      "ĠMil": 5220,
      "oughly": 5221,
      "Ġsalt": 5222,
      "Ġfle": 5223,
      "Ġgovernments": 5224,
      "Ġincreasingly": 5225,
      "Ġproport": 5226,
      "ĠEconom": 5227,
      "Ġinvestment": 5228,
      "Ġoperating": 5229,
      "Ġtopics": 5230,
      "TS": 5231,
      "Ġdynam": 5232,
      "ĠTechnology": 5233,
      "Ġstars": 5234,
      "Ġspend": 5235,
      "Ġplayed": 5236,
      "Ġrevolution": 5237,
      "BN": 5238,
      "Ġaren": 5239,
      "Ġvital": 5240,
      "ĠRussia": 5241,
      "Ġnutrients": 5242,
      "ĠSou": 5243,
      "Ġgoods": 5244,
      "Ġslightly": 5245,
      "Ġnations": 5246,
      "osa": 5247,
      "Ġvehicle": 5248,
      "ĠDise": 5249,
      "ometimes": 5250,
      "ĠRef": 5251,
      "active": 5252,
      "ND": 5253,
      "name": 5254,
      "ails": 5255,
      "Ġrecognized": 5256,
      "?âĢĿ": 5257,
      "istan": 5258,
      "eters": 5259,
      "ĠLatin": 5260,
      "gl": 5261,
      "Ġbird": 5262,
      "inent": 5263,
      "Ġrecy": 5264,
      "ĠBook": 5265,
      "Ġspl": 5266,
      "Ġneut": 5267,
      "Ġlik": 5268,
      "ĠToday": 5269,
      "eck": 5270,
      "Ġrein": 5271,
      "state": 5272,
      "ĠJose": 5273,
      "Ġdocuments": 5274,
      "ĠDef": 5275,
      "Ġfamiliar": 5276,
      "Ġcrops": 5277,
      "ĠHol": 5278,
      "unk": 5279,
      "rastructure": 5280,
      "Ġbow": 5281,
      "ĠCle": 5282,
      "Ġofficials": 5283,
      ".;": 5284,
      "Ġvalid": 5285,
      "Ġappeared": 5286,
      "cript": 5287,
      "ĠBoth": 5288,
      "inding": 5289,
      "Ġroll": 5290,
      "Ġtrain": 5291,
      "ded": 5292,
      "Ġrail": 5293,
      "othing": 5294,
      "Ġexternal": 5295,
      "AP": 5296,
      "la": 5297,
      "Ġinterests": 5298,
      "Ġsubstant": 5299,
      "Ġvaccine": 5300,
      "Ġinstruction": 5301,
      "Ġknew": 5302,
      "Ġpaid": 5303,
      "ĠTreat": 5304,
      "Ġ2020": 5305,
      "Ġkeeping": 5306,
      "ĠEmp": 5307,
      "Ġstudied": 5308,
      "ville": 5309,
      "ĠCD": 5310,
      "Ġclim": 5311,
      "34": 5312,
      "ĠBen": 5313,
      "Ġthin": 5314,
      "Ġvent": 5315,
      "Ġfing": 5316,
      "ĠMiddle": 5317,
      "Ġfacilities": 5318,
      "Ġstone": 5319,
      "Ġdepth": 5320,
      "Ġtitle": 5321,
      "pat": 5322,
      "ĠGoogle": 5323,
      "Ġapparent": 5324,
      "mic": 5325,
      "ĠNor": 5326,
      "Ġproteins": 5327,
      "Ġfiles": 5328,
      "Ġspiritual": 5329,
      "Ġmeasured": 5330,
      "Ġperiods": 5331,
      "Ġliver": 5332,
      "Ġresidents": 5333,
      "alian": 5334,
      "ĠBC": 5335,
      "ĠCompany": 5336,
      "Ġmoist": 5337,
      "Ġband": 5338,
      "ipped": 5339,
      "37": 5340,
      "More": 5341,
      "Ġrepresents": 5342,
      "Ġdiscovery": 5343,
      "Ġconcentration": 5344,
      "Ġmit": 5345,
      "that": 5346,
      "Ġcomponent": 5347,
      "chers": 5348,
      "ĠSecond": 5349,
      "Ġvoice": 5350,
      "Ġchief": 5351,
      "Ġdisapp": 5352,
      "Ġhelpful": 5353,
      "Ġimmun": 5354,
      "Ġsubjects": 5355,
      "Ġcontem": 5356,
      "ĠInformation": 5357,
      "Ġportion": 5358,
      "ĠConstitution": 5359,
      "Ġdial": 5360,
      "Ġoral": 5361,
      "Ġcontaining": 5362,
      "olf": 5363,
      "Ġwalls": 5364,
      "Ġcouple": 5365,
      "ĠColumb": 5366,
      "Ġwestern": 5367,
      "Ġconvent": 5368,
      "Ġtasks": 5369,
      "ague": 5370,
      "gal": 5371,
      "Ġallerg": 5372,
      "Ġdouble": 5373,
      "Ġtypical": 5374,
      "Ġastron": 5375,
      "ĠBat": 5376,
      "Ġpil": 5377,
      "cest": 5378,
      "isp": 5379,
      "Ġviews": 5380,
      "igenous": 5381,
      "500": 5382,
      "stood": 5383,
      "Ġparties": 5384,
      "Ġclosely": 5385,
      "ĠCharles": 5386,
      "Ġselected": 5387,
      "Ġcircumst": 5388,
      "Ġsen": 5389,
      "nel": 5390,
      "itage": 5391,
      "ĠFranc": 5392,
      "ION": 5393,
      "Ġleaving": 5394,
      "Ġtested": 5395,
      "ĠMont": 5396,
      "Ġfertil": 5397,
      "eria": 5398,
      "ificial": 5399,
      "Ġmetab": 5400,
      "Ġmarine": 5401,
      "Ġcrisis": 5402,
      "atever": 5403,
      "ĠNature": 5404,
      "Ġages": 5405,
      "Ġexplained": 5406,
      "down": 5407,
      "ĠUp": 5408,
      "Ġharvest": 5409,
      "Ġlose": 5410,
      "anta": 5411,
      "Ġconcerned": 5412,
      "hma": 5413,
      "Ġaccurate": 5414,
      "roc": 5415,
      "racy": 5416,
      "Ġrural": 5417,
      "van": 5418,
      "ĠCatholic": 5419,
      "ĠLearning": 5420,
      "zy": 5421,
      "Ġtried": 5422,
      "Ġnerv": 5423,
      "ĠStand": 5424,
      "ĠKen": 5425,
      "Ġabuse": 5426,
      "Ġreform": 5427,
      "ĠOut": 5428,
      "Ġfunding": 5429,
      "ĠWind": 5430,
      "ĠControl": 5431,
      "ĠDel": 5432,
      "MS": 5433,
      "alse": 5434,
      "Ġinsurance": 5435,
      "Ġdirector": 5436,
      "ĠWild": 5437,
      "Ġgrown": 5438,
      "Ġdepends": 5439,
      "Ġemployees": 5440,
      "rating": 5441,
      "Ġelev": 5442,
      "Ġdeliver": 5443,
      "liam": 5444,
      "ĠPost": 5445,
      "ĠData": 5446,
      "âĢĻ.": 5447,
      "Ġopinion": 5448,
      "itness": 5449,
      "ellect": 5450,
      "lers": 5451,
      "ompl": 5452,
      "Ġmovements": 5453,
      "Ġadding": 5454,
      "Gen": 5455,
      "Ġnaturally": 5456,
      "Ġdiscussed": 5457,
      "ĠWomen": 5458,
      "Ġoutcomes": 5459,
      ".|": 5460,
      "44": 5461,
      "Ġalt": 5462,
      "Ġmedications": 5463,
      "ĠSupp": 5464,
      "Ġrapidly": 5465,
      "Ġnarrow": 5466,
      "Another": 5467,
      "Ġsubsequ": 5468,
      "OT": 5469,
      "ca": 5470,
      "des": 5471,
      "Ġpaint": 5472,
      "BC": 5473,
      "ĠMem": 5474,
      "ĠCommit": 5475,
      "ĠRights": 5476,
      "55": 5477,
      "Ġpu": 5478,
      "ĠLake": 5479,
      "celer": 5480,
      "Ġcurriculum": 5481,
      "Im": 5482,
      "hi": 5483,
      "Ġ2019": 5484,
      "ĠFoundation": 5485,
      "Ġsecure": 5486,
      "Ġnan": 5487,
      "ĠSte": 5488,
      "Ġstret": 5489,
      "Ġju": 5490,
      "Ġtips": 5491,
      "ĠRobert": 5492,
      "Ġcrucial": 5493,
      "Ġchann": 5494,
      "ĠGroup": 5495,
      "ĠLand": 5496,
      "Ġcorrespond": 5497,
      "Ġfeelings": 5498,
      "Ġod": 5499,
      "Ġpray": 5500,
      "Ġsed": 5501,
      "ĠSuch": 5502,
      "Ġvisible": 5503,
      "Ġmyth": 5504,
      "DF": 5505,
      "Ġpump": 5506,
      "Ġhouses": 5507,
      "pass": 5508,
      "ĠPsych": 5509,
      "Ġpig": 5510,
      "amily": 5511,
      "Ġfloor": 5512,
      "ĠSea": 5513,
      "Ġmuseum": 5514,
      "ĠAp": 5515,
      "Ġweap": 5516,
      "Ġdefic": 5517,
      "dden": 5518,
      "During": 5519,
      "Ġcolors": 5520,
      "Ġconscious": 5521,
      "Ġargument": 5522,
      "Ġvillage": 5523,
      "osph": 5524,
      "Ġimpossible": 5525,
      "ĠAnother": 5526,
      "ÃŃ": 5527,
      "32": 5528,
      "asive": 5529,
      "Ġlessons": 5530,
      "ascular": 5531,
      "long": 5532,
      "Ġjustice": 5533,
      "ario": 5534,
      "Ġfruits": 5535,
      "osc": 5536,
      "ny": 5537,
      "Ġaccomp": 5538,
      "Ġimmig": 5539,
      "Ġlatest": 5540,
      "Ġbones": 5541,
      "iled": 5542,
      "ctic": 5543,
      "88": 5544,
      "mas": 5545,
      "Ġdatabase": 5546,
      "Do": 5547,
      "ymph": 5548,
      "Ġtouch": 5549,
      "Ġregional": 5550,
      "Ġdecrease": 5551,
      "Ġsides": 5552,
      "Ġmamm": 5553,
      "Ġingred": 5554,
      "Ġroots": 5555,
      "Ġrecognize": 5556,
      "ĠHistor": 5557,
      "Ind": 5558,
      "Ġcrim": 5559,
      "Ġadvoc": 5560,
      "iest": 5561,
      "Ġrecovery": 5562,
      "ĠCanadian": 5563,
      "Ġ45": 5564,
      "gment": 5565,
      "Ġraise": 5566,
      "ĠNations": 5567,
      "Ġformal": 5568,
      "Ġpictures": 5569,
      "ĠIrish": 5570,
      "Ġdescribes": 5571,
      "Ġbusinesses": 5572,
      "ĠManagement": 5573,
      "vironments": 5574,
      "ulin": 5575,
      "umber": 5576,
      "ĠDisc": 5577,
      "Ġphone": 5578,
      "Ġincl": 5579,
      "Ġregularly": 5580,
      "Ġmillions": 5581,
      "liament": 5582,
      "ibl": 5583,
      "Ġsets": 5584,
      "Ġprices": 5585,
      "Ġrecon": 5586,
      "46": 5587,
      "ĠLike": 5588,
      "Ġsudden": 5589,
      "Ġdeaths": 5590,
      "ĠOffice": 5591,
      "Ġmoon": 5592,
      "Ġarms": 5593,
      "oster": 5594,
      "Ġaccepted": 5595,
      "Ġapart": 5596,
      "agues": 5597,
      "ibilities": 5598,
      "Ġshel": 5599,
      "Ġcapable": 5600,
      "Ġdistingu": 5601,
      "Ġpure": 5602,
      "ĠMake": 5603,
      "umin": 5604,
      "ĠJud": 5605,
      "Ġbrown": 5606,
      "athy": 5607,
      "Ġcomputers": 5608,
      "Ġsuffering": 5609,
      "ĠInstead": 5610,
      "Ġdut": 5611,
      "spec": 5612,
      "ocratic": 5613,
      "Ġleadership": 5614,
      "bi": 5615,
      "Ġsurvival": 5616,
      "Ġprocedures": 5617,
      "Ġsimpl": 5618,
      "31": 5619,
      "obe": 5620,
      "Ġprecise": 5621,
      "Ġpregnancy": 5622,
      "Ġnarr": 5623,
      "Ġdomestic": 5624,
      "99": 5625,
      "Ġclosed": 5626,
      "ĠPers": 5627,
      "Ġexpensive": 5628,
      "Ġsecondary": 5629,
      "Ġnetworks": 5630,
      "ĠUsing": 5631,
      "Ġobtained": 5632,
      "ini": 5633,
      "Ġ1999": 5634,
      "Ġwindow": 5635,
      "Ġtalking": 5636,
      "Ġsubstance": 5637,
      "ĠSmith": 5638,
      "ĠEnvironmental": 5639,
      "My": 5640,
      "icks": 5641,
      "HO": 5642,
      "Ġ*": 5643,
      "Ġintroduction": 5644,
      "Ġmoral": 5645,
      "Ġlatter": 5646,
      "Ġsatell": 5647,
      "Ġunlike": 5648,
      "Ġaccompl": 5649,
      "Ġinternet": 5650,
      "ĠLouis": 5651,
      "Ġmedium": 5652,
      "76": 5653,
      "ava": 5654,
      "ĠISBN": 5655,
      "struct": 5656,
      "ĠLibrary": 5657,
      "Ġagreement": 5658,
      "Ġble": 5659,
      "sts": 5660,
      "Ġrestrict": 5661,
      "Ġprinciple": 5662,
      "Ġwarming": 5663,
      "uilding": 5664,
      "Ġoriginally": 5665,
      "fall": 5666,
      "Ġaircraft": 5667,
      "rust": 5668,
      "Ġtoler": 5669,
      "ĠBet": 5670,
      "ĠLabor": 5671,
      "Ġsyndrome": 5672,
      "Ġinterf": 5673,
      "Ġopened": 5674,
      "Ġvaluable": 5675,
      "ĠFlorida": 5676,
      "Ġsan": 5677,
      "Ġcomprehensive": 5678,
      "Other": 5679,
      "urd": 5680,
      "Ġsmart": 5681,
      "Ġinflammation": 5682,
      "].": 5683,
      "osal": 5684,
      "Ġlaun": 5685,
      "De": 5686,
      "ada": 5687,
      "ĠFederal": 5688,
      "abil": 5689,
      "pping": 5690,
      "ĠNav": 5691,
      "Ġpretty": 5692,
      "Dr": 5693,
      "LE": 5694,
      "Ġcandid": 5695,
      "Ġscholars": 5696,
      "Ġflight": 5697,
      "inations": 5698,
      "Ġfrag": 5699,
      "Ġexchange": 5700,
      "Sc": 5701,
      "anda": 5702,
      "Ġinterview": 5703,
      "ĠCarol": 5704,
      "inet": 5705,
      "Ġchapter": 5706,
      "ĠHenry": 5707,
      "Ġextract": 5708,
      "Ġinfrastructure": 5709,
      "ooth": 5710,
      "ita": 5711,
      "Ġtiny": 5712,
      "cling": 5713,
      "ĠScient": 5714,
      "Ġlands": 5715,
      "anguage": 5716,
      "ola": 5717,
      "Ġgun": 5718,
      "ĠEngine": 5719,
      "Ġcreative": 5720,
      "Ġera": 5721,
      "Ġadopted": 5722,
      "aria": 5723,
      "Ġcalls": 5724,
      "Ġpossibly": 5725,
      "Ġcardi": 5726,
      "tage": 5727,
      "ĠAlex": 5728,
      "Ġslowly": 5729,
      "Ġdiversity": 5730,
      "tenance": 5731,
      "Ġdistrict": 5732,
      "ĠSum": 5733,
      "Ġdream": 5734,
      "ĠTer": 5735,
      "Ġapprec": 5736,
      "Ġpossibility": 5737,
      "Ġrecip": 5738,
      "Ġtraffic": 5739,
      "esity": 5740,
      "lements": 5741,
      "roid": 5742,
      "sembly": 5743,
      "Ġstored": 5744,
      "Ġfigures": 5745,
      "Ġnewsp": 5746,
      "Ġproducing": 5747,
      "Ġframework": 5748,
      "Ġfell": 5749,
      "Ġdriving": 5750,
      "Ġagriculture": 5751,
      "Ġdiam": 5752,
      "Ġprotocol": 5753,
      "ston": 5754,
      "Ġancest": 5755,
      "Ġguidelines": 5756,
      "Ġinfected": 5757,
      "Ġfacilit": 5758,
      "olve": 5759,
      "prise": 5760,
      "bert": 5761,
      "Ġnormally": 5762,
      "othe": 5763,
      "Ġagencies": 5764,
      "ota": 5765,
      "ĠBro": 5766,
      "acts": 5767,
      "Ġparam": 5768,
      "hist": 5769,
      "Ġcoff": 5770,
      "Ġtail": 5771,
      "Ġtow": 5772,
      "Ġperce": 5773,
      "Ġcorpor": 5774,
      "Ġlifest": 5775,
      "Ġsoldiers": 5776,
      "Ġsuffer": 5777,
      "war": 5778,
      "rem": 5779,
      "Ġhunt": 5780,
      "exp": 5781,
      "ĠCommon": 5782,
      "Ġconstitution": 5783,
      "Ġstock": 5784,
      "bing": 5785,
      "rants": 5786,
      "reed": 5787,
      "Ġwire": 5788,
      "Ġgenerate": 5789,
      "ĠReview": 5790,
      "being": 5791,
      "Go": 5792,
      "ĠTem": 5793,
      "Ġmanaged": 5794,
      "igation": 5795,
      "49": 5796,
      "indu": 5797,
      "Ġformat": 5798,
      "85": 5799,
      "ifies": 5800,
      "Ġmobile": 5801,
      "Ġtroops": 5802,
      "86": 5803,
      "orrow": 5804,
      "Ġrepeated": 5805,
      "alysis": 5806,
      "Ġinches": 5807,
      "Ġrid": 5808,
      "Ġpoet": 5809,
      "Ġextensive": 5810,
      "Ġerror": 5811,
      "Ġabsolute": 5812,
      "Ġinner": 5813,
      "ĠKnow": 5814,
      "Ġworldwide": 5815,
      "Ġedge": 5816,
      "Ġworse": 5817,
      "Ġdepos": 5818,
      "Ġ31": 5819,
      "ĠProv": 5820,
      "Ġspeaking": 5821,
      "inn": 5822,
      "Ġadministration": 5823,
      "Re": 5824,
      "ĠAustralian": 5825,
      "Ġimproving": 5826,
      "See": 5827,
      "uke": 5828,
      "Ġsell": 5829,
      "add": 5830,
      "Ġchain": 5831,
      "Ġrefuge": 5832,
      "Ġenvironments": 5833,
      "Ġprepare": 5834,
      "Ġdoctors": 5835,
      "ĠStudies": 5836,
      "Ġappearance": 5837,
      "Ġwildlife": 5838,
      "Ġimper": 5839,
      "Ġlabel": 5840,
      "Ġlandscape": 5841,
      "Ġ<": 5842,
      "Ġplate": 5843,
      "Ġsky": 5844,
      "Ġachieved": 5845,
      "Ġsensitive": 5846,
      "Ġmassive": 5847,
      "ĠTHE": 5848,
      "Ġpossess": 5849,
      "Ġsick": 5850,
      "ĠSaf": 5851,
      "Ġ1980": 5852,
      "Ġtal": 5853,
      "Ġrevealed": 5854,
      "Te": 5855,
      "Ġships": 5856,
      "Ġunless": 5857,
      "apping": 5858,
      "ĠLeg": 5859,
      "asp": 5860,
      "Ġelectronic": 5861,
      "Ġacts": 5862,
      "Ġdecade": 5863,
      "Ġdiverse": 5864,
      "Ġanswers": 5865,
      "ĠGood": 5866,
      "ĠAnn": 5867,
      "Ġgather": 5868,
      "Ġunderstood": 5869,
      "ka": 5870,
      "Ġdecline": 5871,
      "Ġtransmission": 5872,
      "Ġminim": 5873,
      "ĠUSA": 5874,
      "Ġ>": 5875,
      "ona": 5876,
      "Ġdust": 5877,
      "ĠAtt": 5878,
      "Ġvehicles": 5879,
      "ĠVirginia": 5880,
      "Ġvote": 5881,
      "Ġprevention": 5882,
      "Ġhorse": 5883,
      "ĠCommittee": 5884,
      "free": 5885,
      "Ġsuitable": 5886,
      "Ġcreates": 5887,
      "ĠPower": 5888,
      "ato": 5889,
      "ĠOx": 5890,
      "Ġsuc": 5891,
      "ĠItaly": 5892,
      "Ġsurf": 5893,
      "ĠDan": 5894,
      "Ġequival": 5895,
      "89": 5896,
      "Ġintake": 5897,
      "Ġassistance": 5898,
      "ye": 5899,
      "anged": 5900,
      "Ġaccounts": 5901,
      "Ġtun": 5902,
      "Ġmedication": 5903,
      "Ġmountain": 5904,
      "Ġobtain": 5905,
      "wing": 5906,
      "stream": 5907,
      "Ġwear": 5908,
      "Ġcorn": 5909,
      "rine": 5910,
      "normal": 5911,
      "Ġfailed": 5912,
      "icians": 5913,
      "Ġstages": 5914,
      "Ġintellect": 5915,
      "Ġentirely": 5916,
      "orith": 5917,
      "ĠInf": 5918,
      "idden": 5919,
      "rors": 5920,
      "Ġneck": 5921,
      "ĠAC": 5922,
      "Ġlisted": 5923,
      "Ġenhance": 5924,
      "Ġwants": 5925,
      "osqu": 5926,
      "Ġconcrete": 5927,
      "luding": 5928,
      "Ġcircumstances": 5929,
      "Ġstick": 5930,
      "Ġsports": 5931,
      "ĠTor": 5932,
      "ocracy": 5933,
      "Ġtransition": 5934,
      "Ġsurvive": 5935,
      "Ġadequ": 5936,
      "ĠThose": 5937,
      "ypes": 5938,
      "Ġstarts": 5939,
      "ĠPub": 5940,
      "Ġchart": 5941,
      "Ġselection": 5942,
      "ml": 5943,
      "zen": 5944,
      "agers": 5945,
      "Ġreject": 5946,
      "Ġrub": 5947,
      "Ġexpressed": 5948,
      "Ġaw": 5949,
      "ĠDiv": 5950,
      "inking": 5951,
      "Ġinsects": 5952,
      "ĠId": 5953,
      "Ġafford": 5954,
      "iability": 5955,
      "Ġgal": 5956,
      "Ġauthorities": 5957,
      "Us": 5958,
      "Ġfill": 5959,
      "flow": 5960,
      "Ġinject": 5961,
      "Ġuns": 5962,
      "ditionally": 5963,
      "ĠCancer": 5964,
      "Ġtwice": 5965,
      "Ġ1998": 5966,
      "cel": 5967,
      "abric": 5968,
      "ĠLong": 5969,
      "olester": 5970,
      "Ġthor": 5971,
      "Ġuniverse": 5972,
      "Ġphr": 5973,
      "Ġsupplement": 5974,
      "Ġextended": 5975,
      "ropical": 5976,
      "ctive": 5977,
      "erent": 5978,
      "kins": 5979,
      "Ġengage": 5980,
      "Ġhousing": 5981,
      "tra": 5982,
      "no": 5983,
      "ĠStat": 5984,
      "Ġremaining": 5985,
      "clop": 5986,
      "Ġlibrary": 5987,
      "Ġsharing": 5988,
      "Ġ300": 5989,
      "ait": 5990,
      "ship": 5991,
      "organ": 5992,
      "Cont": 5993,
      "Ġvolunte": 5994,
      "ĠHome": 5995,
      "ĠKh": 5996,
      "using": 5997,
      "Ġcars": 5998,
      ".âĢĻ": 5999,
      "Ġopening": 6000,
      "Ġoptim": 6001,
      "ansion": 6002,
      "ĠCamb": 6003,
      "Ġcloud": 6004,
      "ribed": 6005,
      "Ġgreatly": 6006,
      "ĠJoseph": 6007,
      "47": 6008,
      "itative": 6009,
      "omach": 6010,
      "ĠChic": 6011,
      "Ġelectron": 6012,
      "Ġharmful": 6013,
      "Ġsweet": 6014,
      "ki": 6015,
      "amil": 6016,
      "Ġunknown": 6017,
      "izer": 6018,
      "Ġdescription": 6019,
      "Ġparalle": 6020,
      "Ġdestroyed": 6021,
      "Ġgall": 6022,
      "hemical": 6023,
      "ipping": 6024,
      "Se": 6025,
      "ĠPM": 6026,
      "Ġindeed": 6027,
      "Ġcircuit": 6028,
      "Ġmanufacturing": 6029,
      "Ġdoubt": 6030,
      "Ġdesire": 6031,
      "ĠVict": 6032,
      "Ġsentence": 6033,
      "Ġbudget": 6034,
      "Ġconsid": 6035,
      "Ġgenerated": 6036,
      "Ġjourney": 6037,
      "Ġreaders": 6038,
      "ints": 6039,
      "Ġsurve": 6040,
      "Ġserver": 6041,
      "En": 6042,
      "UR": 6043,
      "ivery": 6044,
      "abits": 6045,
      "Ġprem": 6046,
      "Ġseeing": 6047,
      "oto": 6048,
      "ensions": 6049,
      "CR": 6050,
      "eper": 6051,
      "ĠOnly": 6052,
      "DP": 6053,
      "ena": 6054,
      "inction": 6055,
      "Ġremote": 6056,
      "Ã¼": 6057,
      "Ġdigest": 6058,
      "Ġimplementation": 6059,
      "Ġintelligence": 6060,
      "Ġshell": 6061,
      "Ġprincip": 6062,
      "olesterol": 6063,
      "Ġnurs": 6064,
      "Ġmarriage": 6065,
      "Ġstruggle": 6066,
      "Ġax": 6067,
      "teries": 6068,
      "Ġroutine": 6069,
      "Ġamb": 6070,
      "Ġtells": 6071,
      "ĠProfessor": 6072,
      "65": 6073,
      "Ġdaughter": 6074,
      "Ġsupplies": 6075,
      "Ġfoundation": 6076,
      "born": 6077,
      "under": 6078,
      "ĠGold": 6079,
      "Ġexperiments": 6080,
      "arant": 6081,
      "icide": 6082,
      "ĠEmpire": 6083,
      "Ġagency": 6084,
      "ĠSpain": 6085,
      "Ġarrived": 6086,
      "level": 6087,
      "Ġattend": 6088,
      "Ġtruly": 6089,
      "Ġwww": 6090,
      "Ġdin": 6091,
      "ogue": 6092,
      "utch": 6093,
      "Ġpref": 6094,
      "Ġabund": 6095,
      "Ġplays": 6096,
      "Ġindex": 6097,
      "Read": 6098,
      "âĢĺ": 6099,
      "Ġsteel": 6100,
      "Ġcatch": 6101,
      "Ġinjuries": 6102,
      "called": 6103,
      "ĠLab": 6104,
      "Ġ500": 6105,
      "ĠExp": 6106,
      "Ġcritic": 6107,
      "elled": 6108,
      "orter": 6109,
      "iform": 6110,
      "itan": 6111,
      "âĢĻ,": 6112,
      "Ġproduces": 6113,
      "Ġfounded": 6114,
      "Ġmarked": 6115,
      "Ġfasc": 6116,
      "ĠGal": 6117,
      "Ġbroken": 6118,
      "cher": 6119,
      "cture": 6120,
      "ĠSl": 6121,
      "ĠNorthern": 6122,
      "ĠGet": 6123,
      "Ġunp": 6124,
      "Ġchoices": 6125,
      "Ġdecide": 6126,
      "Ġcourses": 6127,
      "Ġfewer": 6128,
      "Ġbehaviour": 6129,
      "ua": 6130,
      "Ġscript": 6131,
      "Ġflag": 6132,
      "Ġissued": 6133,
      "Ġemployment": 6134,
      "ĠAbout": 6135,
      "Ġprofessionals": 6136,
      "Ġcolleagues": 6137,
      "Ġlaboratory": 6138,
      "Ġaf": 6139,
      "Ġsight": 6140,
      "ĠCamp": 6141,
      "Ġchildhood": 6142,
      "Ġlocations": 6143,
      "Ġsupports": 6144,
      "oned": 6145,
      "icon": 6146,
      "Ġhealthcare": 6147,
      "Ġreader": 6148,
      "ĠGlobal": 6149,
      "zil": 6150,
      "American": 6151,
      "Ġwave": 6152,
      "Ġacceler": 6153,
      "ĠReport": 6154,
      "CS": 6155,
      "mary": 6156,
      "ĠRad": 6157,
      "ĠYet": 6158,
      "Ġremind": 6159,
      "erals": 6160,
      "Ġfilled": 6161,
      "ĠFe": 6162,
      "Ġshut": 6163,
      "Ġ1970": 6164,
      "abul": 6165,
      "Ġlimits": 6166,
      "ĠSouthern": 6167,
      "Ġorganized": 6168,
      "Ġforests": 6169,
      "kes": 6170,
      "Ġrank": 6171,
      "Ġantibiot": 6172,
      "Ġ185": 6173,
      "Ġhus": 6174,
      "Ġwaves": 6175,
      "ĠBre": 6176,
      "Ġhappy": 6177,
      "Ġcalcium": 6178,
      "ĠJe": 6179,
      "Ġpowers": 6180,
      "ĠAcademy": 6181,
      "ĠIN": 6182,
      "Ġtea": 6183,
      "uits": 6184,
      "inity": 6185,
      "Ġlots": 6186,
      "ĠCap": 6187,
      "Ġbot": 6188,
      "body": 6189,
      "word": 6190,
      "Ġstanding": 6191,
      "Ġourselves": 6192,
      "Ġskill": 6193,
      "Ġaqu": 6194,
      "Ġshift": 6195,
      "Ġfixed": 6196,
      "ĠThrough": 6197,
      "Ġderived": 6198,
      "Ġpull": 6199,
      "Ġenable": 6200,
      "burg": 6201,
      "ache": 6202,
      "ctor": 6203,
      "Ġsuccessfully": 6204,
      "Ġrepresented": 6205,
      "isters": 6206,
      "Ġnine": 6207,
      "ĠSk": 6208,
      "Ġdiscipl": 6209,
      "ioxide": 6210,
      "77": 6211,
      "Ġfly": 6212,
      "ĠViet": 6213,
      "Ġgrav": 6214,
      "Ġstudying": 6215,
      "Ġbeneficial": 6216,
      "Ġconsistent": 6217,
      "Ġthousand": 6218,
      "but": 6219,
      "ĠMad": 6220,
      "hand": 6221,
      "ione": 6222,
      "ĠBr": 6223,
      "Ġcounty": 6224,
      "Ġphotograph": 6225,
      "ĠValley": 6226,
      "Ġfunds": 6227,
      "Ġreplaced": 6228,
      "irty": 6229,
      "ĠMag": 6230,
      "ĠBur": 6231,
      "ĠAny": 6232,
      "Ġpermanent": 6233,
      "ĠPeter": 6234,
      "antly": 6235,
      "Ġroof": 6236,
      "Ġsignals": 6237,
      "Ġhandle": 6238,
      "Ġcryst": 6239,
      "Ġfossil": 6240,
      "Can": 6241,
      "Ġsod": 6242,
      "ĠIll": 6243,
      "Ġindicates": 6244,
      "Ġdomin": 6245,
      "from": 6246,
      "aser": 6247,
      "Ġopposite": 6248,
      "Ġkit": 6249,
      "Ġsolve": 6250,
      "Ġcultiv": 6251,
      "Ġjoin": 6252,
      "itter": 6253,
      "sey": 6254,
      "Ġyounger": 6255,
      "Since": 6256,
      "ĠCare": 6257,
      "Ġlisten": 6258,
      "Ġzone": 6259,
      "Ġimmediate": 6260,
      "throp": 6261,
      "Ã³": 6262,
      "aped": 6263,
      "Ġacids": 6264,
      "Ġmaintenance": 6265,
      "Ġcarefully": 6266,
      "Pe": 6267,
      "ora": 6268,
      "Ġoutl": 6269,
      "Ġflav": 6270,
      "rot": 6271,
      "ĠHall": 6272,
      "Ġsubs": 6273,
      "Ġcloser": 6274,
      "Ġbear": 6275,
      "Ġoverl": 6276,
      "ĠClin": 6277,
      "Ġwish": 6278,
      "ĠSecurity": 6279,
      "Ġvulnerable": 6280,
      "gent": 6281,
      "ployment": 6282,
      "Ġconsumers": 6283,
      "ĠParis": 6284,
      "ih": 6285,
      "Ġfalse": 6286,
      "ĠBank": 6287,
      "cules": 6288,
      "etime": 6289,
      "ĠOF": 6290,
      "Ġhydrogen": 6291,
      "Ġaudience": 6292,
      "Ġtransportation": 6293,
      "Ġcustomers": 6294,
      "Ġdoor": 6295,
      "Ġvessels": 6296,
      "ĠPan": 6297,
      "Ġath": 6298,
      "Ġstomach": 6299,
      "Ġboost": 6300,
      "Ġintervention": 6301,
      "Ġvariable": 6302,
      "Ġwalking": 6303,
      "Ġalgorith": 6304,
      "Ġsupposed": 6305,
      "Stud": 6306,
      "Ġcultures": 6307,
      "Ġadministr": 6308,
      "wo": 6309,
      "Ġcentre": 6310,
      "lets": 6311,
      "ĠRob": 6312,
      "Ġdifficulty": 6313,
      "Ġgone": 6314,
      "ĠStreet": 6315,
      "igned": 6316,
      "Ġinteraction": 6317,
      "Ġmarried": 6318,
      "Ġmixed": 6319,
      "Ġnerve": 6320,
      "ĠMo": 6321,
      "ĠCult": 6322,
      "Ġregulations": 6323,
      "Ġsequence": 6324,
      "ĠItalian": 6325,
      "Ġpercentage": 6326,
      "Ġinstitution": 6327,
      "then": 6328,
      "Ġislands": 6329,
      "Ġunable": 6330,
      "ediatric": 6331,
      "heast": 6332,
      "imer": 6333,
      "Ġstroke": 6334,
      "Ġbutter": 6335,
      "Ġarchitecture": 6336,
      "Ġdensity": 6337,
      "iration": 6338,
      "ĠRoyal": 6339,
      "Ã¶": 6340,
      "lder": 6341,
      "Ġremark": 6342,
      "ĠBoard": 6343,
      "Ġresponses": 6344,
      "ĠRome": 6345,
      "Ġstands": 6346,
      "Ġmulti": 6347,
      "Ġpurchase": 6348,
      "ĠExpl": 6349,
      "Ġjoined": 6350,
      "Ġterritory": 6351,
      "Ġaward": 6352,
      "ĠDen": 6353,
      "Ġknows": 6354,
      "aud": 6355,
      "ighter": 6356,
      "Ġdrawing": 6357,
      "Ġrising": 6358,
      "Ġsupporting": 6359,
      "Ġnecessarily": 6360,
      "Ġearthqu": 6361,
      "Ġbrand": 6362,
      "Ġleaf": 6363,
      "Ġcoffee": 6364,
      "ĠCat": 6365,
      "phone": 6366,
      "Ġunus": 6367,
      "Ġdebate": 6368,
      "stein": 6369,
      "osquit": 6370,
      "Ġcomposition": 6371,
      "Ġpron": 6372,
      "Ġcarb": 6373,
      "ĠClimate": 6374,
      "Ġvoc": 6375,
      "Ġamaz": 6376,
      "Ġpersist": 6377,
      "ashion": 6378,
      "ĠStudy": 6379,
      "Ġcomparison": 6380,
      "Ġsucceed": 6381,
      "ums": 6382,
      "Ġchosen": 6383,
      "Ġdomain": 6384,
      "Ġfighting": 6385,
      "Ġtaste": 6386,
      "ĠExt": 6387,
      "ĠDisease": 6388,
      "Ġtall": 6389,
      "riers": 6390,
      "Ġtraum": 6391,
      "Ġexplo": 6392,
      "pet": 6393,
      "Ġorganisms": 6394,
      "Ġcommunicate": 6395,
      "Ġalle": 6396,
      "Ġclust": 6397,
      "comm": 6398,
      "Ġdedicated": 6399,
      "bur": 6400,
      "gu": 6401,
      "Ġeastern": 6402,
      "Ġsmoke": 6403,
      "Ġtons": 6404,
      "Ġepid": 6405,
      "ented": 6406,
      "ĠSol": 6407,
      "IL": 6408,
      "uter": 6409,
      "Ġrequest": 6410,
      "Ġblocks": 6411,
      "ĠIndians": 6412,
      "Ġturns": 6413,
      "Ġdental": 6414,
      "Ġreven": 6415,
      "Ġgluc": 6416,
      "last": 6417,
      "ifications": 6418,
      "Ġattached": 6419,
      "Ġdefe": 6420,
      "Ġrhy": 6421,
      "Ġgrew": 6422,
      "Ġcomments": 6423,
      "Ġbattery": 6424,
      "Ġlifestyle": 6425,
      "Ġpurs": 6426,
      "Ġprompt": 6427,
      "Ġdiscrimination": 6428,
      "ĠParty": 6429,
      "Ġhem": 6430,
      "Ġconventional": 6431,
      "fortunately": 6432,
      "Ġrelax": 6433,
      "ugh": 6434,
      "Ġends": 6435,
      "zed": 6436,
      "ĠEth": 6437,
      "Ġcolour": 6438,
      "ĠAdminist": 6439,
      "Ġmechanism": 6440,
      "ĠTimes": 6441,
      "Ġshot": 6442,
      "Ġvoltage": 6443,
      "orous": 6444,
      "ĠIII": 6445,
      "ĠMill": 6446,
      "ĠWood": 6447,
      "ĠIP": 6448,
      "Ġyield": 6449,
      "Ġoccasion": 6450,
      "rd": 6451,
      "Ġdioxide": 6452,
      "ester": 6453,
      "Ġreserv": 6454,
      "....": 6455,
      "Ġphilosophy": 6456,
      "Ġstable": 6457,
      "Ġexists": 6458,
      "Ġresulted": 6459,
      "Ġ1997": 6460,
      "79": 6461,
      "bran": 6462,
      "riting": 6463,
      "Ġcutting": 6464,
      "ĠRichard": 6465,
      "usal": 6466,
      "ĠMicro": 6467,
      "Ġpus": 6468,
      "Ġunderlying": 6469,
      "Ġwhereas": 6470,
      "Ġobservations": 6471,
      "struction": 6472,
      "sen": 6473,
      "Ġlies": 6474,
      "ĠPy": 6475,
      "ups": 6476,
      "ĠTime": 6477,
      "Ġbiggest": 6478,
      "Ġultimately": 6479,
      "Ġaccum": 6480,
      "xts": 6481,
      "eenth": 6482,
      "Ġmac": 6483,
      "Ġmice": 6484,
      "Ġraw": 6485,
      "Ġkidney": 6486,
      "umes": 6487,
      "Ġtwenty": 6488,
      "ĠNatural": 6489,
      "Ġinhib": 6490,
      "ĠCy": 6491,
      "ĠSciences": 6492,
      "Ġguarant": 6493,
      "Ġinstruments": 6494,
      "pan": 6495,
      "Ġregul": 6496,
      "Ġmatters": 6497,
      "Ġdelivery": 6498,
      "Ġethnic": 6499,
      "peror": 6500,
      "Ġcos": 6501,
      "Ġresolution": 6502,
      "Ġconnections": 6503,
      "Ġemotions": 6504,
      "Ġborder": 6505,
      "gans": 6506,
      "ĠBrown": 6507,
      "earchers": 6508,
      "Ġtrained": 6509,
      "Ġparticipate": 6510,
      "Ġsoul": 6511,
      "ĠChicago": 6512,
      "ĠEss": 6513,
      "Ġteen": 6514,
      "Ġbehaviors": 6515,
      "stract": 6516,
      "Ġaccident": 6517,
      "Ġasthma": 6518,
      "how": 6519,
      "hop": 6520,
      "Ġusage": 6521,
      "Ġprev": 6522,
      "ĠVis": 6523,
      "Ġmagnetic": 6524,
      "Ġbreathing": 6525,
      "onia": 6526,
      "ĠAdd": 6527,
      "Ġhoriz": 6528,
      "Bl": 6529,
      "rovers": 6530,
      "Ġemployed": 6531,
      "OL": 6532,
      "Ġplayers": 6533,
      "Ġfunctional": 6534,
      "Ġequivalent": 6535,
      "Ġcholesterol": 6536,
      "Ġmode": 6537,
      "Ġwitness": 6538,
      "ĠAst": 6539,
      "BS": 6540,
      "gs": 6541,
      "ĠEnd": 6542,
      "ocy": 6543,
      "Ġ36": 6544,
      "Ġlayers": 6545,
      "Ġdiagnosed": 6546,
      "such": 6547,
      "Ġcards": 6548,
      "Ġcontamin": 6549,
      "Ġhabits": 6550,
      "ĠPenn": 6551,
      "Ġnearby": 6552,
      "Ġratio": 6553,
      "Ġprove": 6554,
      "Ġsail": 6555,
      "ĠOh": 6556,
      "Ġdownload": 6557,
      "Ġimprovement": 6558,
      "Ġacknow": 6559,
      "ribe": 6560,
      "Ġwriter": 6561,
      "Ġholds": 6562,
      "Ġexamine": 6563,
      "itt": 6564,
      "ĠWhe": 6565,
      "bour": 6566,
      "Ġnob": 6567,
      "uh": 6568,
      "Ġfabric": 6569,
      "Let": 6570,
      "ĠNut": 6571,
      "Ġlegislation": 6572,
      "Ġfeeding": 6573,
      "while": 6574,
      "Ġdemonstrated": 6575,
      "irds": 6576,
      "Ġcontained": 6577,
      "Ġestimate": 6578,
      "Ġcompens": 6579,
      "Ġstatistics": 6580,
      "05": 6581,
      "Ġmand": 6582,
      "Ġchrom": 6583,
      "Ġelection": 6584,
      "ĠZeal": 6585,
      "Ġwhatever": 6586,
      "ĠBrazil": 6587,
      "Ġaer": 6588,
      "Ġpra": 6589,
      "Ġshop": 6590,
      "Ġestimates": 6591,
      "sets": 6592,
      "Ġnegot": 6593,
      "Ġpreval": 6594,
      "EP": 6595,
      "cyclop": 6596,
      "Ġveter": 6597,
      "Ġmood": 6598,
      "Ġzero": 6599,
      "orph": 6600,
      "Ġspok": 6601,
      "Ġwilling": 6602,
      "ĠExper": 6603,
      "Ġmolecules": 6604,
      "First": 6605,
      "ĠâĨ": 6606,
      "Ġexplanation": 6607,
      "Ġbiod": 6608,
      "Ġmild": 6609,
      "Ġobesity": 6610,
      "ĠMer": 6611,
      "ĠRom": 6612,
      "abled": 6613,
      "Ġbread": 6614,
      "ĠAI": 6615,
      "Ġstring": 6616,
      "Ġrecept": 6617,
      "ĠMa": 6618,
      "Ġartificial": 6619,
      "Ġhypothes": 6620,
      "erior": 6621,
      "ĠKingdom": 6622,
      "top": 6623,
      "Ġholid": 6624,
      "ĠAgricult": 6625,
      "icious": 6626,
      "Ġinstructions": 6627,
      "rite": 6628,
      "etics": 6629,
      "ĠMichael": 6630,
      "Ġlegs": 6631,
      "Ġpolitics": 6632,
      "Not": 6633,
      "Ġcompounds": 6634,
      "Ġmanip": 6635,
      "Ġuniversity": 6636,
      "Ġoperate": 6637,
      "Ġvolcan": 6638,
      "Ġconclusion": 6639,
      "Ġcommitted": 6640,
      "Ġsacr": 6641,
      "ĠSing": 6642,
      "Ġwasn": 6643,
      "Ġpassage": 6644,
      "Int": 6645,
      "Ġnone": 6646,
      "Ġfrequent": 6647,
      "Ġenemy": 6648,
      "inson": 6649,
      "ditional": 6650,
      "Med": 6651,
      "Rec": 6652,
      "itual": 6653,
      "Ġdelay": 6654,
      "Ġgram": 6655,
      "ĠWik": 6656,
      "Ġmechanisms": 6657,
      "ĠDet": 6658,
      "teen": 6659,
      "Ġdistur": 6660,
      "isk": 6661,
      "ĠZealand": 6662,
      "Ġrivers": 6663,
      "een": 6664,
      "ults": 6665,
      "Ġ75": 6666,
      "Ġdemonstrate": 6667,
      "aph": 6668,
      "espread": 6669,
      "Ġmatch": 6670,
      "Ġdefine": 6671,
      "Ġcoastal": 6672,
      "Ġregist": 6673,
      "ĠColumbia": 6674,
      "Ġneither": 6675,
      "ĠNative": 6676,
      "Ġconfidence": 6677,
      "Ġfract": 6678,
      "otion": 6679,
      "Ġscene": 6680,
      "Ġbridge": 6681,
      "earing": 6682,
      "Ġfold": 6683,
      "Ġmanif": 6684,
      "Ġentered": 6685,
      "Ġindependence": 6686,
      "Ġtrials": 6687,
      "Ġrecognition": 6688,
      "Ġparallel": 6689,
      "Ġcats": 6690,
      "itudes": 6691,
      "Ġgap": 6692,
      "ĠAS": 6693,
      "ĠBab": 6694,
      "Ġspaces": 6695,
      "Ġdrawn": 6696,
      "Ġpsychological": 6697,
      "OC": 6698,
      "Ġprohib": 6699,
      "usiness": 6700,
      "ĠKeep": 6701,
      "idity": 6702,
      "ĠFace": 6703,
      "Ġmedic": 6704,
      "roduction": 6705,
      "ĠCa": 6706,
      "Ġscan": 6707,
      "Ġdebt": 6708,
      "Ġsettings": 6709,
      "imens": 6710,
      "ĠScott": 6711,
      "Ġcart": 6712,
      "Ġment": 6713,
      "everal": 6714,
      "ĠGeorg": 6715,
      "ĠAtlantic": 6716,
      "43": 6717,
      "ĠPop": 6718,
      "Ġrice": 6719,
      "asty": 6720,
      "itely": 6721,
      "adder": 6722,
      "Ġgenerations": 6723,
      "hav": 6724,
      "irt": 6725,
      "Ġagreed": 6726,
      "Ġ1996": 6727,
      "Ġreactions": 6728,
      "ittle": 6729,
      "Ġfu": 6730,
      "ĠFree": 6731,
      "Ġswim": 6732,
      "omer": 6733,
      "Ġrelation": 6734,
      "01": 6735,
      "87": 6736,
      "fish": 6737,
      "Ġsections": 6738,
      "Ġentry": 6739,
      "41": 6740,
      "ĠEqu": 6741,
      "Ġdoi": 6742,
      "Ġmeters": 6743,
      "Ġhistoric": 6744,
      "Ġmaps": 6745,
      "ĠHaw": 6746,
      "Ġcriminal": 6747,
      "esis": 6748,
      "Ġ1960": 6749,
      "car": 6750,
      "Ġrow": 6751,
      "Ġphysics": 6752,
      "scale": 6753,
      "aine": 6754,
      "95": 6755,
      "rary": 6756,
      "Ġforth": 6757,
      "Ġburning": 6758,
      "Ġcompetition": 6759,
      "ĠDesign": 6760,
      "rat": 6761,
      "Ġvs": 6762,
      "ĠConn": 6763,
      "Ġcircle": 6764,
      "ictionary": 6765,
      "Ġmachines": 6766,
      "ĠFrank": 6767,
      "Ġpregnant": 6768,
      "Ġearn": 6769,
      "arsh": 6770,
      "Ġille": 6771,
      "ĠOcean": 6772,
      "Ġgreenhouse": 6773,
      "Ġtrip": 6774,
      "Ġongoing": 6775,
      "Ġcrime": 6776,
      "Ġcapture": 6777,
      "Ġvictims": 6778,
      "plant": 6779,
      "ĠServices": 6780,
      "Ġended": 6781,
      "Ġarrange": 6782,
      "Ġcrow": 6783,
      "Ġsomewhat": 6784,
      "ĠGuide": 6785,
      "42": 6786,
      "Ġindustries": 6787,
      "ishment": 6788,
      "Ġruns": 6789,
      "Ġpool": 6790,
      "Ġevaluation": 6791,
      "ĠDiff": 6792,
      "Ġdepart": 6793,
      "Ġboys": 6794,
      "ourage": 6795,
      "asters": 6796,
      "ĠPet": 6797,
      "Ġpublication": 6798,
      "Ġfeedback": 6799,
      "Ġintellectual": 6800,
      "ala": 6801,
      "weight": 6802,
      "Ġcup": 6803,
      "ĠProp": 6804,
      "Ġpositions": 6805,
      "Ġparticipation": 6806,
      "Ġdanger": 6807,
      "Don": 6808,
      "ĠÎ": 6809,
      "Ġtut": 6810,
      "Ġhun": 6811,
      "ĠForm": 6812,
      "Ġoblig": 6813,
      "Ġdamaged": 6814,
      "Ġahead": 6815,
      "ureau": 6816,
      "Ġarrest": 6817,
      "Ġsheet": 6818,
      "Ġsole": 6819,
      "Ġnoise": 6820,
      "Ġpanel": 6821,
      "Ġdollars": 6822,
      "ĠColor": 6823,
      "Ġholding": 6824,
      "Ġtissues": 6825,
      "Ġcamera": 6826,
      "Ġapproved": 6827,
      "Ġpapers": 6828,
      "Ġorient": 6829,
      "ĠBig": 6830,
      "Ġchick": 6831,
      "Ġspending": 6832,
      "Ġtexts": 6833,
      "ĠStep": 6834,
      "Ġeveryday": 6835,
      "IR": 6836,
      "athe": 6837,
      "itivity": 6838,
      "Ġpup": 6839,
      "Ġforget": 6840,
      "Ġmaintaining": 6841,
      "Ġdeclared": 6842,
      "Ġthanks": 6843,
      "Ġconsumer": 6844,
      "Ġmicrob": 6845,
      "azine": 6846,
      "Ġlymph": 6847,
      "Ġexercises": 6848,
      "Ġinteractions": 6849,
      "Ġviruses": 6850,
      "ĠSar": 6851,
      "ulty": 6852,
      "Ġbio": 6853,
      "AA": 6854,
      "opic": 6855,
      "Note": 6856,
      "Ġmold": 6857,
      "ĠEastern": 6858,
      "ĠScot": 6859,
      "ĠVictor": 6860,
      "ĠCast": 6861,
      "Lear": 6862,
      "hent": 6863,
      "Ġalter": 6864,
      "Ġinsulin": 6865,
      "forcement": 6866,
      "CD": 6867,
      "Of": 6868,
      "Figure": 6869,
      "Ġpounds": 6870,
      "Ġboy": 6871,
      "ĠDig": 6872,
      "Ġexpansion": 6873,
      "hesis": 6874,
      "Ġinvolving": 6875,
      "fit": 6876,
      "orses": 6877,
      "Ġcovers": 6878,
      "ĠRevolution": 6879,
      "Your": 6880,
      "yal": 6881,
      "reated": 6882,
      "ĠVen": 6883,
      "Ġconstructed": 6884,
      "Ġcomposed": 6885,
      "Over": 6886,
      "Ġcoc": 6887,
      "ĠHave": 6888,
      "Ġpresentation": 6889,
      "rial": 6890,
      "yles": 6891,
      "Ġblow": 6892,
      "Ġdestruction": 6893,
      "66": 6894,
      "rey": 6895,
      "stone": 6896,
      "ether": 6897,
      "IG": 6898,
      "nee": 6899,
      "Ġpainting": 6900,
      "Ġconven": 6901,
      "Ġsmoking": 6902,
      "Ġfro": 6903,
      "Ġshad": 6904,
      "agon": 6905,
      "Ġrealize": 6906,
      "Ġ150": 6907,
      "ano": 6908,
      "Ġstreet": 6909,
      "Ġwidespread": 6910,
      "Ġglucose": 6911,
      "Ġhero": 6912,
      "Ġshif": 6913,
      "Ġdisaster": 6914,
      "Ġpartner": 6915,
      "Ġrocks": 6916,
      "Ġtel": 6917,
      "liest": 6918,
      "Once": 6919,
      "net": 6920,
      "Ġped": 6921,
      "Ġnest": 6922,
      "umps": 6923,
      "Ġserving": 6924,
      "Ġmolecular": 6925,
      "avery": 6926,
      "urrent": 6927,
      "ĠFort": 6928,
      "Ġ32": 6929,
      "%)": 6930,
      "ĠAge": 6931,
      "ĠAccess": 6932,
      "Ġresident": 6933,
      "Ġlaunched": 6934,
      "making": 6935,
      "raining": 6936,
      "tic": 6937,
      "va": 6938,
      "Ġbeings": 6939,
      "operation": 6940,
      "Ġreceiving": 6941,
      "AB": 6942,
      "cons": 6943,
      "gov": 6944,
      "Ġcalories": 6945,
      "aya": 6946,
      "Ġphoto": 6947,
      "Ġintegrated": 6948,
      "ĠPract": 6949,
      "aked": 6950,
      "Ġske": 6951,
      "Ġreliable": 6952,
      "ĠMartin": 6953,
      "ohyd": 6954,
      "Ġaccessible": 6955,
      "Ġstrongly": 6956,
      "abulary": 6957,
      "ĠMD": 6958,
      "Ġworry": 6959,
      "Ġcolumn": 6960,
      "Ġassociation": 6961,
      "Ġclaimed": 6962,
      "Ġsubstances": 6963,
      "Even": 6964,
      "igan": 6965,
      "Ġfourth": 6966,
      "Ġthy": 6967,
      "ĠGard": 6968,
      "ritis": 6969,
      "Ġbrings": 6970,
      "ĠÐ": 6971,
      "Ġpair": 6972,
      "Ġ1995": 6973,
      "Ġye": 6974,
      "Ġchallenging": 6975,
      "Ġdivision": 6976,
      "Ġmoisture": 6977,
      "Ġsought": 6978,
      "Ġfiber": 6979,
      "aska": 6980,
      "Ġdefense": 6981,
      "Ġputting": 6982,
      "Ġroute": 6983,
      "Ġcategories": 6984,
      "ugg": 6985,
      "Ġrepair": 6986,
      "Ġflo": 6987,
      "Ġcrew": 6988,
      "Ġfacility": 6989,
      "Ġneighborhood": 6990,
      "anes": 6991,
      "Ġoutbre": 6992,
      "Ġdistributed": 6993,
      "eless": 6994,
      "ella": 6995,
      "Ġsmooth": 6996,
      "Ġdesigns": 6997,
      "Ġrelief": 6998,
      "ĠEarly": 6999,
      "Ġmeth": 7000,
      "uts": 7001,
      "Ġplus": 7002,
      "Ġphosph": 7003,
      "Ġguidance": 7004,
      "ĠCarolina": 7005,
      "itamin": 7006,
      "Ġmarkets": 7007,
      "Ġprogramming": 7008,
      "Ġvisitors": 7009,
      "Ġaband": 7010,
      "IM": 7011,
      "reek": 7012,
      "Ġframe": 7013,
      "Ġtrouble": 7014,
      "Ġtub": 7015,
      "ĠEc": 7016,
      "Ġsignificance": 7017,
      "ortion": 7018,
      "Ġcontrovers": 7019,
      "ĠChange": 7020,
      "Ġundert": 7021,
      "ĠKorea": 7022,
      "isdom": 7023,
      "ĠWall": 7024,
      "Ġmerely": 7025,
      "ĠIran": 7026,
      "ĠKar": 7027,
      "gers": 7028,
      "inally": 7029,
      "Ġtheories": 7030,
      "Ġartists": 7031,
      "Ġescape": 7032,
      "rin": 7033,
      "Ġrig": 7034,
      "Ġcompris": 7035,
      "Ġmeal": 7036,
      "Ġdefend": 7037,
      "VID": 7038,
      "ĠAgency": 7039,
      "Ġturning": 7040,
      "ĠAngel": 7041,
      "ĠOrganization": 7042,
      "Ġproportion": 7043,
      "Ġbeliefs": 7044,
      "TM": 7045,
      "Ġinstalled": 7046,
      "Ġobjective": 7047,
      "Ġindicated": 7048,
      "she": 7049,
      "Ġring": 7050,
      "dule": 7051,
      "ricts": 7052,
      "ĠTake": 7053,
      "ĠFamily": 7054,
      "Ġseeking": 7055,
      "Ġcarrying": 7056,
      "Ġbond": 7057,
      "Ġwait": 7058,
      "Ġminute": 7059,
      "Ġcategory": 7060,
      "Ġphysician": 7061,
      "84": 7062,
      "Ġhole": 7063,
      "Ġorgans": 7064,
      "Ġaims": 7065,
      "Ġ;": 7066,
      "Ġslavery": 7067,
      "Ġpassing": 7068,
      "Ġhusband": 7069,
      "pes": 7070,
      "Ġminerals": 7071,
      "Ġrarely": 7072,
      "ĠNetwork": 7073,
      "Ġtank": 7074,
      "Ġstrict": 7075,
      "osion": 7076,
      "ĠDirector": 7077,
      "Ġassume": 7078,
      "Ġplane": 7079,
      "Ġmoves": 7080,
      "Ġinformed": 7081,
      "Ġlake": 7082,
      "Ġsigned": 7083,
      "Ġmissing": 7084,
      "Ġasking": 7085,
      "Ġloved": 7086,
      "Ġrely": 7087,
      "ounter": 7088,
      "Ġevaluate": 7089,
      "Ġhur": 7090,
      "Ġneur": 7091,
      "Qu": 7092,
      "Ġterror": 7093,
      "mes": 7094,
      "ĠMen": 7095,
      "ocation": 7096,
      "Ġarchae": 7097,
      "Ġfulf": 7098,
      "Ġfer": 7099,
      "ĠSet": 7100,
      "acher": 7101,
      "Ġdischar": 7102,
      "ixture": 7103,
      "73": 7104,
      "Ġ^": 7105,
      "Ġtight": 7106,
      "Ġfever": 7107,
      "Ġtranslation": 7108,
      "Ġrecommendations": 7109,
      "herent": 7110,
      "iratory": 7111,
      "ĠAsian": 7112,
      "Every": 7113,
      "Ġcash": 7114,
      "iah": 7115,
      "Ġwriters": 7116,
      "Ġannounced": 7117,
      "Ġingredients": 7118,
      "ĠNaz": 7119,
      "Ġbabies": 7120,
      "Ġjudge": 7121,
      "Ġfavorite": 7122,
      "oston": 7123,
      "Ġbreeding": 7124,
      "Ġelectro": 7125,
      "Ġproved": 7126,
      "oids": 7127,
      "oln": 7128,
      "including": 7129,
      "Ġconsiderable": 7130,
      "Ġmosquit": 7131,
      "Ġforg": 7132,
      "ĠEffect": 7133,
      "Ġintense": 7134,
      "Ġdependent": 7135,
      "ĠDistrict": 7136,
      "htt": 7137,
      "sis": 7138,
      "Ġattempts": 7139,
      "Ġpoem": 7140,
      "Ġ400": 7141,
      "amine": 7142,
      "Ġoutcome": 7143,
      "ounded": 7144,
      "Ġopposed": 7145,
      "ĠAcc": 7146,
      "Ġbiology": 7147,
      "Ġtraditions": 7148,
      "ĠLanguage": 7149,
      "rowing": 7150,
      "Ġfashion": 7151,
      "ĠDar": 7152,
      "Ġempt": 7153,
      "Ġseemed": 7154,
      "alm": 7155,
      "Ġmaintained": 7156,
      "Ġmessages": 7157,
      "Ġsatellite": 7158,
      "Ġcod": 7159,
      "Ġfurn": 7160,
      "Ġheating": 7161,
      "ĠEU": 7162,
      "Ġpharm": 7163,
      "Ġcenters": 7164,
      "Ġ65": 7165,
      "Ġplanned": 7166,
      "ĠHoly": 7167,
      "Ġchest": 7168,
      "Ġbringing": 7169,
      "Ġgalax": 7170,
      "Ġwarning": 7171,
      "Ġcompare": 7172,
      "Ġmembran": 7173,
      "Ġsurfaces": 7174,
      "ocial": 7175,
      "Ġtract": 7176,
      "ĠPC": 7177,
      "UN": 7178,
      "ĠCreat": 7179,
      "roud": 7180,
      "Ġjur": 7181,
      "Ġkilomet": 7182,
      "health": 7183,
      "heric": 7184,
      "Ġconstantly": 7185,
      "ollowing": 7186,
      "Ġcontemporary": 7187,
      "à¥": 7188,
      "ĠWhere": 7189,
      "Ġseconds": 7190,
      "Ġfacing": 7191,
      "06": 7192,
      "Ã¢": 7193,
      "Ġvirtual": 7194,
      "Ġcollaboration": 7195,
      "ĠMoon": 7196,
      "opes": 7197,
      "%.": 7198,
      "UT": 7199,
      "Ġitem": 7200,
      "eren": 7201,
      "Ġpoison": 7202,
      "ĠSecret": 7203,
      "Ġbanks": 7204,
      "oples": 7205,
      "Ġcomplicated": 7206,
      "Ġtheore": 7207,
      "Ġtheme": 7208,
      "Ġadequate": 7209,
      "Ġelected": 7210,
      "olesc": 7211,
      "irus": 7212,
      "Ġdefect": 7213,
      "Ġphenomenon": 7214,
      "Ġprincipal": 7215,
      "ĠSym": 7216,
      "Ġrenewable": 7217,
      "aka": 7218,
      "Ġengaged": 7219,
      "Ġconversation": 7220,
      "ĠFacebook": 7221,
      "ĠThough": 7222,
      "Ġreduces": 7223,
      "Ġordered": 7224,
      "rooms": 7225,
      "Ġstre": 7226,
      "ĠPolic": 7227,
      "Ġstatements": 7228,
      "Ġnitrogen": 7229,
      "Le": 7230,
      "Ġjump": 7231,
      "Ġknowing": 7232,
      "Ġcaptured": 7233,
      "li": 7234,
      "Ġadvert": 7235,
      "ĠStar": 7236,
      "Ġlie": 7237,
      "Ġproceed": 7238,
      "Ġincred": 7239,
      "Ġimplications": 7240,
      "Ġoffering": 7241,
      "Ġequally": 7242,
      "Ġfairly": 7243,
      "71": 7244,
      "Ġeffectiveness": 7245,
      "Ġdepartment": 7246,
      "Ġcontrols": 7247,
      "Ġgradually": 7248,
      "Ġhonor": 7249,
      "Ġtargets": 7250,
      "Ġconfirmed": 7251,
      "Ġstructural": 7252,
      "isco": 7253,
      "Ġthreats": 7254,
      "CE": 7255,
      "Ġdent": 7256,
      "ude": 7257,
      "Ġcommunications": 7258,
      "Ġphotos": 7259,
      "Ġassigned": 7260,
      "Ġsharp": 7261,
      "Ġweapons": 7262,
      "Ġcav": 7263,
      "ĠAP": 7264,
      "ĠHam": 7265,
      "ima": 7266,
      "Ġfemales": 7267,
      "Ġmaybe": 7268,
      "ĠBefore": 7269,
      "ĠMoreover": 7270,
      "vard": 7271,
      "Ġbranches": 7272,
      "Ġmathematics": 7273,
      "IA": 7274,
      "ĠHeb": 7275,
      "GE": 7276,
      "medi": 7277,
      "Ġencouraged": 7278,
      "ersonal": 7279,
      "itarian": 7280,
      "Ġoverw": 7281,
      "ĠSometimes": 7282,
      "ĠHy": 7283,
      "Ġagents": 7284,
      "Ġfinished": 7285,
      "Ġdates": 7286,
      "Ġdeeper": 7287,
      "lishing": 7288,
      "ani": 7289,
      "Ġroughly": 7290,
      "Because": 7291,
      "oa": 7292,
      "ĠMel": 7293,
      "ĠHill": 7294,
      "Ġroles": 7295,
      "Ġmechanical": 7296,
      "ĠIns": 7297,
      "ventions": 7298,
      "mers": 7299,
      "oric": 7300,
      "Ġdealing": 7301,
      "ivered": 7302,
      "Ġdesired": 7303,
      "Ġimagine": 7304,
      "Ġinher": 7305,
      "ĠCre": 7306,
      "ĠChristmas": 7307,
      "Ġessentially": 7308,
      "Ġimplemented": 7309,
      "IP": 7310,
      "Today": 7311,
      "heimer": 7312,
      "ĠLib": 7313,
      "istical": 7314,
      "rous": 7315,
      "Ġmining": 7316,
      "Ġinfluenced": 7317,
      "Ġrespectively": 7318,
      "Ġstimul": 7319,
      "Ġgained": 7320,
      "Ġshock": 7321,
      "ooking": 7322,
      "Ġshapes": 7323,
      "ĠType": 7324,
      "ading": 7325,
      "Ġ1994": 7326,
      "produ": 7327,
      "Ġsession": 7328,
      "alls": 7329,
      "Ġnervous": 7330,
      "OM": 7331,
      "Ġrect": 7332,
      "ĠIV": 7333,
      "Ġspin": 7334,
      "Ġcareful": 7335,
      "Ġpestic": 7336,
      "ĠPen": 7337,
      "Ġvac": 7338,
      "Ġinsert": 7339,
      "ĠWord": 7340,
      "Ġdecor": 7341,
      "Ġmineral": 7342,
      "Ġcombat": 7343,
      "Ġbreath": 7344,
      "ĠFund": 7345,
      "Ġinterpre": 7346,
      "Or": 7347,
      "Ġpush": 7348,
      "ĠSat": 7349,
      "Ġabnormal": 7350,
      "Ġparas": 7351,
      "Ġfarming": 7352,
      "ĠOpen": 7353,
      "ĠOxford": 7354,
      "Ġwithd": 7355,
      "olving": 7356,
      "aming": 7357,
      "ĠList": 7358,
      "Ġinfect": 7359,
      "iana": 7360,
      "iological": 7361,
      "etary": 7362,
      "rays": 7363,
      "ĠUr": 7364,
      "Ġtransp": 7365,
      "Ġofficers": 7366,
      "Ġcopper": 7367,
      "ĠCoast": 7368,
      ")|": 7369,
      "Ġsuffered": 7370,
      "Ġunusual": 7371,
      "ĠAND": 7372,
      "Ġteams": 7373,
      "example": 7374,
      "Ġblind": 7375,
      "Ġerrors": 7376,
      "Ġmeasurement": 7377,
      "Ġmeasurements": 7378,
      "ĠDespite": 7379,
      "Ġirrit": 7380,
      "Ġfed": 7381,
      "Ġran": 7382,
      "Ġexamination": 7383,
      "Ġvarieties": 7384,
      "ĠResources": 7385,
      "Ġbeauty": 7386,
      "ĠCheck": 7387,
      "Su": 7388,
      "chen": 7389,
      "ĠLar": 7390,
      "Ġstronger": 7391,
      "Ġmountains": 7392,
      "Ġhazard": 7393,
      "Ġscore": 7394,
      "Ġplenty": 7395,
      "ishop": 7396,
      "erman": 7397,
      "ĠMinister": 7398,
      "Ġsubsequent": 7399,
      "Ġevil": 7400,
      "Ġscar": 7401,
      "ĠVer": 7402,
      "icted": 7403,
      "'m": 7404,
      "72": 7405,
      "bra": 7406,
      "ĠSwed": 7407,
      "oured": 7408,
      "outs": 7409,
      "apse": 7410,
      "Ġcattle": 7411,
      "Ġlaunch": 7412,
      "rox": 7413,
      "thritis": 7414,
      "ĠBill": 7415,
      "inder": 7416,
      "Ġproven": 7417,
      "Ġedition": 7418,
      "acco": 7419,
      "pd": 7420,
      "upt": 7421,
      "Ġclothing": 7422,
      "airy": 7423,
      "LA": 7424,
      "tles": 7425,
      "Ġbath": 7426,
      "riz": 7427,
      "ommod": 7428,
      "Ġowner": 7429,
      "Ġinterpretation": 7430,
      "esides": 7431,
      "Ġsup": 7432,
      "ĠDutch": 7433,
      "Ġpreventing": 7434,
      "ĠJeff": 7435,
      "Comp": 7436,
      "Ġorbit": 7437,
      "osh": 7438,
      "Ġradical": 7439,
      "Ġmetabol": 7440,
      "Ġmales": 7441,
      "Ġbreed": 7442,
      "Â·": 7443,
      "Ġtube": 7444,
      "Ġarts": 7445,
      "ĠSpecial": 7446,
      "Ġsatisf": 7447,
      "Ġproof": 7448,
      "greg": 7449,
      "oven": 7450,
      "SS": 7451,
      "ĠPot": 7452,
      "hyd": 7453,
      "Ġembry": 7454,
      "ĠSup": 7455,
      "ĠNon": 7456,
      "Ġpeak": 7457,
      "Ġaged": 7458,
      "Ġcriteria": 7459,
      "ĠEdward": 7460,
      "Ġaccuracy": 7461,
      "Ġgranted": 7462,
      "ĠFar": 7463,
      "Ġregulation": 7464,
      "Ġflows": 7465,
      "81": 7466,
      "rene": 7467,
      "Ġmodified": 7468,
      "ercury": 7469,
      "iner": 7470,
      "Ġalph": 7471,
      "Ġusual": 7472,
      "ipedia": 7473,
      "ĠAmong": 7474,
      "ĠGrand": 7475,
      "ĠJac": 7476,
      "ĠAdv": 7477,
      "Ġexperimental": 7478,
      "Ġepis": 7479,
      "Ġpreparation": 7480,
      "Ġstores": 7481,
      "Ġdemands": 7482,
      "ĠWindows": 7483,
      "ĠPlease": 7484,
      "ĠFather": 7485,
      "Ġdose": 7486,
      "Ġflour": 7487,
      "Ġvariation": 7488,
      "incoln": 7489,
      "Ġlaid": 7490,
      "Ġadvantages": 7491,
      "Ġpermission": 7492,
      "Ġsuperior": 7493,
      "Ġbees": 7494,
      "ruption": 7495,
      "----": 7496,
      "Ġconcluded": 7497,
      "Ġfilter": 7498,
      "Ġdrain": 7499,
      "ogs": 7500,
      "Ġfalls": 7501,
      "igue": 7502,
      "Ġflower": 7503,
      "Ġobserve": 7504,
      "Ġconcerning": 7505,
      "Ġsplit": 7506,
      "ĠAdministration": 7507,
      "Ġpy": 7508,
      "agraph": 7509,
      "ansas": 7510,
      "Ġwheat": 7511,
      "Ġtrigger": 7512,
      "Ġtelevision": 7513,
      "Ġexcessive": 7514,
      "ograp": 7515,
      "Ġroads": 7516,
      "Ġearliest": 7517,
      "83": 7518,
      "Ġnose": 7519,
      "Ġ1993": 7520,
      "Ġaudio": 7521,
      "cyclopedia": 7522,
      "Ġreward": 7523,
      "Ġexamined": 7524,
      "ĠForce": 7525,
      "Ġ1992": 7526,
      "Ġslaves": 7527,
      "Ġcooking": 7528,
      "Ġconsidering": 7529,
      "Ġexclus": 7530,
      "ĠFour": 7531,
      "Ġ1950": 7532,
      "Ġisolated": 7533,
      "Ġhorses": 7534,
      "Ġgut": 7535,
      "aired": 7536,
      "bar": 7537,
      "ĠNov": 7538,
      "ĠYear": 7539,
      "ĠLead": 7540,
      "Ġvariables": 7541,
      "Ġasc": 7542,
      "ĠEp": 7543,
      "BT": 7544,
      "asts": 7545,
      "ĠIndust": 7546,
      "Ġdelivered": 7547,
      "ĠCentre": 7548,
      "ady": 7549,
      "Ġunion": 7550,
      "Ġfishing": 7551,
      "64": 7552,
      "Ã¤": 7553,
      "Ġprovince": 7554,
      "iat": 7555,
      "theless": 7556,
      "ĠWho": 7557,
      "Ġcharacterized": 7558,
      "Ġargue": 7559,
      "edu": 7560,
      "Ġfest": 7561,
      "ĠTim": 7562,
      "ĠOtt": 7563,
      "print": 7564,
      "Ġathlet": 7565,
      "09": 7566,
      "fts": 7567,
      "rass": 7568,
      "ĠMethod": 7569,
      "Ġsunlight": 7570,
      "Ġinitially": 7571,
      "ĠLearn": 7572,
      "unicip": 7573,
      "Ġadds": 7574,
      "Ġfaced": 7575,
      "Ġdifficulties": 7576,
      "Ġswitch": 7577,
      "rolled": 7578,
      "IDS": 7579,
      "Ġinvestigation": 7580,
      "oir": 7581,
      "Ġmm": 7582,
      "Ġconqu": 7583,
      "Ġacute": 7584,
      "ĠYoung": 7585,
      "ĠChristians": 7586,
      "Ġwindows": 7587,
      "eut": 7588,
      "Ġcab": 7589,
      "Ġidentification": 7590,
      "ĠTV": 7591,
      "iva": 7592,
      "occ": 7593,
      "ĠAuthor": 7594,
      "Ġquarter": 7595,
      "People": 7596,
      "iary": 7597,
      "Car": 7598,
      "mod": 7599,
      "Ġpresents": 7600,
      "class": 7601,
      "Ġlearners": 7602,
      "Ġfatty": 7603,
      "onym": 7604,
      "ounce": 7605,
      "Ġconference": 7606,
      "ioxid": 7607,
      "Ġsettlement": 7608,
      "oom": 7609,
      "eness": 7610,
      "Ġpanels": 7611,
      "Ġscreening": 7612,
      "iture": 7613,
      "Ġbomb": 7614,
      "Ġrose": 7615,
      "Ġanalys": 7616,
      "RC": 7617,
      "Ġconj": 7618,
      "ĠPo": 7619,
      "ĠHor": 7620,
      "ĠGar": 7621,
      "ogether": 7622,
      "Ġacres": 7623,
      "Ġhappening": 7624,
      "Ġsenior": 7625,
      "Ġaccompan": 7626,
      "orted": 7627,
      "ĠLight": 7628,
      "Ġuniversal": 7629,
      "Ġov": 7630,
      "ĠSil": 7631,
      "Ġartist": 7632,
      "Ġcm": 7633,
      "ulpt": 7634,
      "HD": 7635,
      "vin": 7636,
      "Ġhealing": 7637,
      "Ġfocuses": 7638,
      "Ġcomplications": 7639,
      "ocolate": 7640,
      "irth": 7641,
      "Ġrecover": 7642,
      "Ġcourts": 7643,
      "Ġrhyth": 7644,
      "Ġstead": 7645,
      "action": 7646,
      "Ġintent": 7647,
      "Ġbigger": 7648,
      "Ġcommission": 7649,
      "Ġnewly": 7650,
      "Am": 7651,
      "ĠTre": 7652,
      "Ġgiant": 7653,
      "ĠThree": 7654,
      "Ġremoval": 7655,
      "Ġuncertain": 7656,
      "isted": 7657,
      "essions": 7658,
      "Ġouter": 7659,
      "Ġamazing": 7660,
      "Ġcorner": 7661,
      "Ġserves": 7662,
      "ĠConservation": 7663,
      "Ġspectrum": 7664,
      "Ġbranch": 7665,
      "Ġdys": 7666,
      "Ġintest": 7667,
      "Ear": 7668,
      "real": 7669,
      "quir": 7670,
      "Ġcham": 7671,
      "ega": 7672,
      "itals": 7673,
      "Ġgro": 7674,
      "Ġautism": 7675,
      "74": 7676,
      "bles": 7677,
      "Ġid": 7678,
      "asant": 7679,
      "Ġhoney": 7680,
      "ĠBoston": 7681,
      "ĠEst": 7682,
      "Ġvisited": 7683,
      "Ġdemocracy": 7684,
      "Ġinnovation": 7685,
      "Ġfung": 7686,
      "Ġconfig": 7687,
      "uset": 7688,
      "amins": 7689,
      "aded": 7690,
      "Ġsubstantial": 7691,
      "Get": 7692,
      "ilation": 7693,
      "ells": 7694,
      "Ġfinds": 7695,
      "oli": 7696,
      "Ġtumor": 7697,
      "ultane": 7698,
      "Ġunw": 7699,
      "Ġanywhere": 7700,
      "Ġformula": 7701,
      "ĠSuper": 7702,
      "ĠFinally": 7703,
      "ĠForest": 7704,
      "82": 7705,
      "RA": 7706,
      "roat": 7707,
      "Ġexceed": 7708,
      "allow": 7709,
      "Ġclar": 7710,
      "uality": 7711,
      "Ġoldest": 7712,
      "Ġemphasis": 7713,
      "03": 7714,
      "Per": 7715,
      "ĠResp": 7716,
      "riend": 7717,
      "aws": 7718,
      "Ġmusical": 7719,
      "mir": 7720,
      "Ġlights": 7721,
      "ĠFurthermore": 7722,
      "encing": 7723,
      "ovascular": 7724,
      "Ġprinted": 7725,
      "vania": 7726,
      "ĠLow": 7727,
      "Ġprocessed": 7728,
      "coming": 7729,
      "Ġreveal": 7730,
      "illa": 7731,
      "ĠChapter": 7732,
      "Ġscientist": 7733,
      "Comm": 7734,
      "Ġstations": 7735,
      "Ġangle": 7736,
      "LS": 7737,
      "uro": 7738,
      "Ġholes": 7739,
      "ĠSund": 7740,
      "Ġmarks": 7741,
      "ĠAmaz": 7742,
      "Ġdrought": 7743,
      "eli": 7744,
      "Ġgrows": 7745,
      "ĠDou": 7746,
      "Ġpreced": 7747,
      "Ġconfident": 7748,
      "Ġmortality": 7749,
      "Ġprofit": 7750,
      "ĠMedia": 7751,
      "Ġliteracy": 7752,
      "irms": 7753,
      "ĠMS": 7754,
      "Ġremed": 7755,
      "Ġcoverage": 7756,
      "Ġguard": 7757,
      "zheimer": 7758,
      "Ġsitting": 7759,
      "Ġtowns": 7760,
      "Ġcaught": 7761,
      "Ġtot": 7762,
      "Ġreaching": 7763,
      "Ġattitude": 7764,
      "yer": 7765,
      "emb": 7766,
      "Ġtemple": 7767,
      "Ġslave": 7768,
      "itory": 7769,
      "achuset": 7770,
      "ucky": 7771,
      "May": 7772,
      "Ġnarrative": 7773,
      "Ġcarbohyd": 7774,
      "achusetts": 7775,
      "pling": 7776,
      "Ġdriven": 7777,
      "ĠCross": 7778,
      "ĠProtection": 7779,
      "Ġstuff": 7780,
      "Ġprominent": 7781,
      "Ġrepresentation": 7782,
      "Ġtropical": 7783,
      "lete": 7784,
      "Ġdetection": 7785,
      "Ġenorm": 7786,
      "Ġperm": 7787,
      "ĠPrinc": 7788,
      "ĠStr": 7789,
      "Ġinterface": 7790,
      "Ġauthent": 7791,
      "Ġhouseholds": 7792,
      "just": 7793,
      "Ġ×": 7794,
      "Ġfires": 7795,
      "elfare": 7796,
      "ĠQueen": 7797,
      "04": 7798,
      "ĠSir": 7799,
      "ĠMah": 7800,
      "achers": 7801,
      "Ġarray": 7802,
      "otherapy": 7803,
      "Ġsales": 7804,
      "Ġinspired": 7805,
      "ĠDoes": 7806,
      "Ġsport": 7807,
      "Ġperception": 7808,
      "She": 7809,
      "ĠBul": 7810,
      "Ġworst": 7811,
      "Ġexpanded": 7812,
      "Ġdirected": 7813,
      "ĠPlant": 7814,
      "CT": 7815,
      "HA": 7816,
      "amples": 7817,
      "Ġprovider": 7818,
      "ĠCommunity": 7819,
      "ami": 7820,
      "Ġconserv": 7821,
      "Ġopposition": 7822,
      "69": 7823,
      "Ġcompound": 7824,
      "Ġregarded": 7825,
      "Ġdecreased": 7826,
      "Ġchannel": 7827,
      "requ": 7828,
      "Ġclient": 7829,
      "Ġpin": 7830,
      "ĠSanta": 7831,
      "Ġuniform": 7832,
      "angered": 7833,
      "century": 7834,
      "Ġheavily": 7835,
      "Ġcontributed": 7836,
      "Ġeliminate": 7837,
      "ĠSign": 7838,
      "Ġplayer": 7839,
      "Ġvideos": 7840,
      "Ġwine": 7841,
      "Ġaccommod": 7842,
      "inf": 7843,
      "ĠWorks": 7844,
      "Ġintensity": 7845,
      "rency": 7846,
      "Ġovercome": 7847,
      "arents": 7848,
      "Ġoccurring": 7849,
      "Ġstrengthen": 7850,
      "effect": 7851,
      "ĠLo": 7852,
      "Ġclub": 7853,
      "Ġconsideration": 7854,
      "Ġlosses": 7855,
      "Ġabsence": 7856,
      "Ġtrends": 7857,
      "night": 7858,
      "Ġautomatically": 7859,
      "sell": 7860,
      "Ġseparated": 7861,
      "ĠGeorgia": 7862,
      "Ġevolved": 7863,
      "anger": 7864,
      "ĠArctic": 7865,
      "Ġlistening": 7866,
      "ieval": 7867,
      "nov": 7868,
      "Ġcontribution": 7869,
      "Ġrelie": 7870,
      "Ġmeasuring": 7871,
      "rical": 7872,
      "sm": 7873,
      "Ġheads": 7874,
      "Ġexception": 7875,
      "Ġabilities": 7876,
      "Ġexped": 7877,
      "About": 7878,
      "Ġdiameter": 7879,
      "door": 7880,
      "Ġbrows": 7881,
      "Ġinfant": 7882,
      "Ġplanets": 7883,
      "Ġconsume": 7884,
      "Ġvocabulary": 7885,
      "icy": 7886,
      "Ġlens": 7887,
      "adel": 7888,
      "Ġcann": 7889,
      "thon": 7890,
      "Ġroyal": 7891,
      "Ġprogramme": 7892,
      "ĠArticle": 7893,
      "ĠLiter": 7894,
      "Ġindigenous": 7895,
      "Ġeditor": 7896,
      "Ġdistricts": 7897,
      "Ġbiom": 7898,
      "Ġcomfortable": 7899,
      "agram": 7900,
      "Ġmanufacturers": 7901,
      "iop": 7902,
      "atial": 7903,
      "Ġpit": 7904,
      "Ġdisrupt": 7905,
      "Ġsuscept": 7906,
      "amination": 7907,
      "Ġritual": 7908,
      "Ġexperiencing": 7909,
      "Ġcontainer": 7910,
      "ĠCambridge": 7911,
      "Pre": 7912,
      "ĠEr": 7913,
      "Ġboat": 7914,
      "02": 7915,
      "ba": 7916,
      "Ġbag": 7917,
      "Ġplot": 7918,
      "Ġregardless": 7919,
      "ĠBattle": 7920,
      "',": 7921,
      "rav": 7922,
      "oga": 7923,
      "Ġaffecting": 7924,
      "Ġdegrad": 7925,
      "ĠCurrent": 7926,
      "Ġhosp": 7927,
      "emia": 7928,
      "ĠLin": 7929,
      "atively": 7930,
      "ĠIss": 7931,
      "Ġswit": 7932,
      "otton": 7933,
      "Ġ2021": 7934,
      "ĠAdditionally": 7935,
      "ĠTable": 7936,
      "ĠWil": 7937,
      "Ġmur": 7938,
      "Ġvan": 7939,
      "Ġampl": 7940,
      "ĠCOVID": 7941,
      "Ġsilver": 7942,
      "Ġillegal": 7943,
      "App": 7944,
      "Ġfra": 7945,
      "archy": 7946,
      "rison": 7947,
      "Ġaddressed": 7948,
      "ENT": 7949,
      "ĠSimilar": 7950,
      "Ġinhabit": 7951,
      "Ġalive": 7952,
      "syl": 7953,
      "Ġprobability": 7954,
      "opyright": 7955,
      "Ġcomprom": 7956,
      "Ġlaser": 7957,
      "abeth": 7958,
      "Ġhence": 7959,
      "ĠStart": 7960,
      "ĠAlzheimer": 7961,
      "Ġmouse": 7962,
      "Ġnice": 7963,
      "ĠGulf": 7964,
      "Ġ33": 7965,
      "Ġflash": 7966,
      "Ġtreating": 7967,
      "Ġdietary": 7968,
      "Ġobservation": 7969,
      "ĠMichigan": 7970,
      "brid": 7971,
      "Ġcyber": 7972,
      "Ġmothers": 7973,
      "Ġbiodiversity": 7974,
      "aus": 7975,
      "Ġà¤": 7976,
      "Ġfo": 7977,
      "olt": 7978,
      "Ġgases": 7979,
      "urning": 7980,
      "Ġobjectives": 7981,
      "ĠPak": 7982,
      "Ġextend": 7983,
      "ĠParliament": 7984,
      "Ġweakness": 7985,
      "soft": 7986,
      "Ġrespiratory": 7987,
      "Ġviewed": 7988,
      "Ġstrike": 7989,
      "iti": 7990,
      "Ġ1930": 7991,
      "Ġcalling": 7992,
      "Ġton": 7993,
      "Ġtick": 7994,
      "forest": 7995,
      "Ġpolar": 7996,
      "Ġdetected": 7997,
      "ĠNever": 7998,
      "Ġcorrel": 7999,
      "Ġmicrosc": 8000,
      "Ġcovering": 8001,
      "Ġgirl": 8002,
      "ĠOhio": 8003,
      "Ġstability": 8004,
      "angle": 8005,
      "Ġsubt": 8006,
      "Ġenables": 8007,
      "Ġwrites": 8008,
      "Ġprotecting": 8009,
      "Ġinteractive": 8010,
      "ĠMassachusetts": 8011,
      "ustain": 8012,
      "ĠConvention": 8013,
      "Ġengineers": 8014,
      "bul": 8015,
      "esh": 8016,
      "Ġinsight": 8017,
      "Ġthreatened": 8018,
      "ĠÂ£": 8019,
      "Ġcommitment": 8020,
      "haust": 8021,
      "Ġschedule": 8022,
      "ĠFrancisco": 8023,
      ".||": 8024,
      "NS": 8025,
      "Part": 8026,
      "html": 8027,
      "Ġtor": 8028,
      "ĠCam": 8029,
      "Ġexecutive": 8030,
      "ogenic": 8031,
      "ĠIslamic": 8032,
      "Ġagent": 8033,
      "Ġquantum": 8034,
      "estion": 8035,
      "Ġchap": 8036,
      "ĠLincoln": 8037,
      "Ġcharacteristic": 8038,
      "Ġfisher": 8039,
      "ĠAM": 8040,
      "igate": 8041,
      "Ġmeals": 8042,
      "Ġidentifying": 8043,
      "ĠHeart": 8044,
      "Ġ55": 8045,
      "Ġnewspaper": 8046,
      "ĠHebrew": 8047,
      "Ġgrid": 8048,
      "Ġbless": 8049,
      "Ġupdated": 8050,
      "zer": 8051,
      "icular": 8052,
      "Ġdance": 8053,
      "ĠTop": 8054,
      "Ġthereby": 8055,
      "Ġsupplements": 8056,
      "Ġfarms": 8057,
      "ket": 8058,
      "rection": 8059,
      "acent": 8060,
      "Ġsculpt": 8061,
      "Ġorders": 8062,
      "oul": 8063,
      "Ġdrag": 8064,
      "Ġcleaning": 8065,
      "Ġcounsel": 8066,
      "Ġinitiative": 8067,
      "Last": 8068,
      "Ġ)": 8069,
      "Ġwisdom": 8070,
      "aying": 8071,
      "Ġresid": 8072,
      "Ġreporting": 8073,
      "Ġestablishment": 8074,
      "Ġelder": 8075,
      "eping": 8076,
      "Ġmoderate": 8077,
      "Ġcooling": 8078,
      "Ġceremon": 8079,
      "Ġbeans": 8080,
      "def": 8081,
      "run": 8082,
      "icing": 8083,
      "otal": 8084,
      "Ġcharged": 8085,
      "ĠPolit": 8086,
      "Ġrational": 8087,
      "Ġeducators": 8088,
      "Ġhardware": 8089,
      "usalem": 8090,
      "asma": 8091,
      "ura": 8092,
      "Ġdesert": 8093,
      "erty": 8094,
      "Ed": 8095,
      "PR": 8096,
      "ĠDC": 8097,
      "ostic": 8098,
      "Ġgrounds": 8099,
      "Ġappointed": 8100,
      "Ġoverwhel": 8101,
      "mm": 8102,
      "Ġfur": 8103,
      "ĠNote": 8104,
      "Ġdisabilities": 8105,
      "plete": 8106,
      "EF": 8107,
      "una": 8108,
      "ĠJul": 8109,
      "Ġexploration": 8110,
      "ĠChristianity": 8111,
      "uy": 8112,
      "Ġproviders": 8113,
      "Ġpointed": 8114,
      "ĠSupreme": 8115,
      "Ġforming": 8116,
      "Ġdescript": 8117,
      "ĠEngineering": 8118,
      "rob": 8119,
      "Ġstopped": 8120,
      "Ġprinting": 8121,
      "ĠPalest": 8122,
      "sylvania": 8123,
      "Ġtables": 8124,
      "Ġaest": 8125,
      "Ġflying": 8126,
      "ifice": 8127,
      "Ġpeoples": 8128,
      "gener": 8129,
      "Ġantioxid": 8130,
      "Ġgrain": 8131,
      "Ġauton": 8132,
      "Ġexplicit": 8133,
      "Ġfunctioning": 8134,
      "Ġmixture": 8135,
      "omatic": 8136,
      "Ġofficer": 8137,
      "ĠPrevention": 8138,
      "ĠPortug": 8139,
      "08": 8140,
      "Ġsizes": 8141,
      "ette": 8142,
      "raq": 8143,
      "Ġadvent": 8144,
      "ĠWithout": 8145,
      "Ġelsewhere": 8146,
      "ailable": 8147,
      "Ġtaxes": 8148,
      "ĠCard": 8149,
      "ĠLos": 8150,
      "neys": 8151,
      "ĠPolicy": 8152,
      "utation": 8153,
      "ĠFigure": 8154,
      "ĠOnline": 8155,
      "Ġresearcher": 8156,
      "rh": 8157,
      "enger": 8158,
      "Also": 8159,
      "Ġdeficiency": 8160,
      "Ġspoken": 8161,
      "uan": 8162,
      "aning": 8163,
      "HS": 8164,
      "ĠPass": 8165,
      "Ġadolesc": 8166,
      "Ġsettled": 8167,
      "ĠEgyptian": 8168,
      "Ġchlor": 8169,
      "ĠRock": 8170,
      "Ġimaging": 8171,
      "ĠBooks": 8172,
      "Ġcopyright": 8173,
      "quar": 8174,
      "Ġadm": 8175,
      "Ġsocieties": 8176,
      "ĠDev": 8177,
      "ĠColl": 8178,
      "Ġconcentrations": 8179,
      "world": 8180,
      "Ġseat": 8181,
      "Ġglac": 8182,
      "green": 8183,
      "Ġlists": 8184,
      "Ġsimultane": 8185,
      "Ġadvis": 8186,
      "Ġhormone": 8187,
      "Ġracial": 8188,
      "Ġfinish": 8189,
      "John": 8190,
      "Ġbelieves": 8191,
      "63": 8192,
      "bec": 8193,
      "isd": 8194,
      "Ġplain": 8195,
      "ildren": 8196,
      "Ġevening": 8197,
      "cking": 8198,
      "Ġ||": 8199,
      "atal": 8200,
      "Ġorb": 8201,
      "ĠLee": 8202,
      "Ġmathematical": 8203,
      "%,": 8204,
      ".).": 8205,
      "Ġmine": 8206,
      "otype": 8207,
      "Ġstrain": 8208,
      "Ġfatigue": 8209,
      "Ġhidden": 8210,
      "ruit": 8211,
      "Ġappeal": 8212,
      "Ġfalling": 8213,
      "Ġargued": 8214,
      "Ġversions": 8215,
      "eor": 8216,
      "Ġconce": 8217,
      "Ġ37": 8218,
      "Ġimprovements": 8219,
      "Ġdramatic": 8220,
      "Ġflexible": 8221,
      "ĠLess": 8222,
      "Ġentit": 8223,
      "Ġparagraph": 8224,
      "Ġharder": 8225,
      "ĠHospital": 8226,
      "Ġperforming": 8227,
      "Ġliterary": 8228,
      "Ġtribes": 8229,
      "Ġearthquake": 8230,
      "Ġhumanity": 8231,
      "ographical": 8232,
      "ĠJohnson": 8233,
      "Ġordinary": 8234,
      "athered": 8235,
      "ĠTO": 8236,
      "ayer": 8237,
      "ĠMult": 8238,
      "Col": 8239,
      "ĠWay": 8240,
      "Ġincident": 8241,
      "Ġ1991": 8242,
      "Ġparad": 8243,
      "Ġexciting": 8244,
      "ĠSafety": 8245,
      "Ġbare": 8246,
      "ĠGre": 8247,
      "Ġsensitivity": 8248,
      "Ġcorrectly": 8249,
      "Ġdynamic": 8250,
      "cho": 8251,
      "ĠSection": 8252,
      "Ġacquired": 8253,
      "ĠAlexander": 8254,
      "istant": 8255,
      "Ġreturns": 8256,
      "Ġaimed": 8257,
      "ao": 8258,
      "iments": 8259,
      "Ġbutton": 8260,
      "ranean": 8261,
      "Ġembra": 8262,
      "Ġantibiotics": 8263,
      "agen": 8264,
      "\")": 8265,
      "ĠClick": 8266,
      "ĠModern": 8267,
      "Ġlungs": 8268,
      "bean": 8269,
      "Ġowned": 8270,
      "Ġinnovative": 8271,
      "Ġassumed": 8272,
      "ĠScotland": 8273,
      "Ġmarg": 8274,
      "ĠMusic": 8275,
      "ĠConference": 8276,
      "har": 8277,
      "ourse": 8278,
      "apes": 8279,
      "Ġraising": 8280,
      "Ġhabitats": 8281,
      "59": 8282,
      "elve": 8283,
      "wan": 8284,
      "zym": 8285,
      "Ġles": 8286,
      "Ġsched": 8287,
      "Ġtemporary": 8288,
      "Ġemerging": 8289,
      "Ġconclus": 8290,
      "ĠCho": 8291,
      "lymp": 8292,
      "Ġcustomer": 8293,
      "Ġphrase": 8294,
      "Ġdism": 8295,
      "Ġpreserve": 8296,
      "Ġbeat": 8297,
      "Ġmanaging": 8298,
      "ĠUnfortunately": 8299,
      "Ġduty": 8300,
      "Ġwage": 8301,
      "Ġscheme": 8302,
      "Ġpand": 8303,
      "Ġquiet": 8304,
      "Ġaging": 8305,
      "ontal": 8306,
      "words": 8307,
      "Ġom": 8308,
      "ĠCirc": 8309,
      "Ġsurge": 8310,
      "Ġsubstit": 8311,
      "iations": 8312,
      "ĠBusiness": 8313,
      "ipher": 8314,
      "Ġdirections": 8315,
      "ometry": 8316,
      "Ġresc": 8317,
      "Ġ1920": 8318,
      "?\"": 8319,
      "hus": 8320,
      "Ġinequ": 8321,
      "Ġurine": 8322,
      "Ġnutrient": 8323,
      "ĠVietnam": 8324,
      "rize": 8325,
      "ĠUt": 8326,
      "Ġplanting": 8327,
      "Ġboundaries": 8328,
      "ĠTom": 8329,
      "ailed": 8330,
      "Ġentertain": 8331,
      "56": 8332,
      "Co": 8333,
      "TP": 8334,
      "Ġchemistry": 8335,
      "ĠReading": 8336,
      "Ġperceived": 8337,
      "Ġcancers": 8338,
      "ĠLy": 8339,
      "Ġshoot": 8340,
      "awa": 8341,
      "Ġprofile": 8342,
      "Ġvariations": 8343,
      "Ġspray": 8344,
      "Ġexisted": 8345,
      "ĠImp": 8346,
      "ĠEconomic": 8347,
      "mann": 8348,
      "Ġavailability": 8349,
      "Ġthermal": 8350,
      "Ġworship": 8351,
      "Ġtempor": 8352,
      "ĠJerusalem": 8353,
      "Ġdriver": 8354,
      "ĠFire": 8355,
      "Ġmyst": 8356,
      "Ġcreatures": 8357,
      "Ġlifetime": 8358,
      "Ġinvestigate": 8359,
      "Ġanalyze": 8360,
      "Ġdisability": 8361,
      "Ġecological": 8362,
      "ĠIdent": 8363,
      "ĠPennsylvania": 8364,
      "ĠMinistry": 8365,
      "Ġspr": 8366,
      "ĠOl": 8367,
      "Ġburied": 8368,
      "QL": 8369,
      "ett": 8370,
      "ĠSand": 8371,
      "izabeth": 8372,
      "Ġconstra": 8373,
      "Ġprotective": 8374,
      ")||": 8375,
      "ician": 8376,
      "aren": 8377,
      "Ġgrains": 8378,
      "eries": 8379,
      "ricted": 8380,
      "Ġphysically": 8381,
      "Ġempty": 8382,
      "gence": 8383,
      "Ġpsychology": 8384,
      "Ġmanifest": 8385,
      "Ġsad": 8386,
      "text": 8387,
      "Ġfaces": 8388,
      "Ġconsciousness": 8389,
      "Ġstreets": 8390,
      "Under": 8391,
      "ĠAnalysis": 8392,
      "Ġintroduce": 8393,
      "ependent": 8394,
      "Art": 8395,
      "ĠAvoid": 8396,
      "Eng": 8397,
      "IF": 8398,
      "ĠHand": 8399,
      "ĠOper": 8400,
      "Ġparticle": 8401,
      "Ġguess": 8402,
      "Ġconsumed": 8403,
      "Ġchromos": 8404,
      "Ġcure": 8405,
      "ĠTry": 8406,
      "plo": 8407,
      "econ": 8408,
      "Ġvel": 8409,
      "Ġmir": 8410,
      "icity": 8411,
      "ĠHead": 8412,
      "Ġtransmit": 8413,
      "Ġentering": 8414,
      "Ġcolony": 8415,
      "Ġwonderful": 8416,
      "ema": 8417,
      "Ġrestoration": 8418,
      "Ġminds": 8419,
      "holders": 8420,
      "ĠPoint": 8421,
      "Ġvap": 8422,
      "Ġinterventions": 8423,
      "ĠMuslims": 8424,
      "],": 8425,
      "Ġfellow": 8426,
      "eting": 8427,
      "ĠObs": 8428,
      "ipe": 8429,
      "Ġclassified": 8430,
      "Ġversus": 8431,
      "Ġpleasure": 8432,
      "Ġvaccines": 8433,
      "uten": 8434,
      "ĠPage": 8435,
      "Ġteens": 8436,
      "Ġinterior": 8437,
      "Ġlowest": 8438,
      "Ġsummary": 8439,
      "ĠRoad": 8440,
      "ĠPakistan": 8441,
      "alities": 8442,
      "stant": 8443,
      "Ġexhaust": 8444,
      "Ġchair": 8445,
      "Ð°": 8446,
      "urches": 8447,
      "ĠIT": 8448,
      "Step": 8449,
      "Ġverb": 8450,
      "Ġkingdom": 8451,
      "ĠBa": 8452,
      "endment": 8453,
      "Ġrab": 8454,
      "zyme": 8455,
      "Ġclassical": 8456,
      "Ġequation": 8457,
      "Ġfinger": 8458,
      "Ġparameters": 8459,
      "adelph": 8460,
      "Ġfought": 8461,
      "ĠLittle": 8462,
      "ecess": 8463,
      "Ġadverse": 8464,
      "Ġlabour": 8465,
      "Ġvertical": 8466,
      "Ġexpectations": 8467,
      "Ġadapted": 8468,
      ":||": 8469,
      "Ġtom": 8470,
      "ĠBM": 8471,
      "Ġquantity": 8472,
      "nut": 8473,
      "Ġtab": 8474,
      "uting": 8475,
      "Ġattach": 8476,
      "Ġsurg": 8477,
      "Ġtechnological": 8478,
      "ĠSpring": 8479,
      "Ġcorresponding": 8480,
      "ĠDivision": 8481,
      "Ġtong": 8482,
      "Ġcort": 8483,
      "Ġheritage": 8484,
      "Ġpropag": 8485,
      "Ġcontributions": 8486,
      "Ġshaped": 8487,
      "Ġpromoting": 8488,
      "Ġstrategic": 8489,
      "Ġpreferred": 8490,
      "Are": 8491,
      "ethe": 8492,
      "Ġanger": 8493,
      "Ġkilling": 8494,
      "ĠOrig": 8495,
      "ĠSenate": 8496,
      "Where": 8497,
      "Ġlip": 8498,
      "mentation": 8499,
      "through": 8500,
      "Ġacting": 8501,
      "Ġheaven": 8502,
      "Ġdeeply": 8503,
      "'.": 8504,
      "Ġasp": 8505,
      "Ġelections": 8506,
      "Cons": 8507,
      "rity": 8508,
      "imp": 8509,
      "Ġconvert": 8510,
      "ĠPur": 8511,
      "ensed": 8512,
      "Ġphotographs": 8513,
      "ashes": 8514,
      "Ġplanted": 8515,
      "Ġfocusing": 8516,
      "Ġsaved": 8517,
      "Ġenormous": 8518,
      "Hist": 8519,
      "Ġwider": 8520,
      "ĠDO": 8521,
      "Ġchances": 8522,
      "ĠFind": 8523,
      "Ġnotion": 8524,
      "Ġengaging": 8525,
      "Ġkeeps": 8526,
      "Ġprivile": 8527,
      "lu": 8528,
      "ĠSolar": 8529,
      "ĠWal": 8530,
      "Ġtargeted": 8531,
      "ouds": 8532,
      "ĠES": 8533,
      "Ġwaiting": 8534,
      "ĠSystems": 8535,
      "Ġbegun": 8536,
      "Ġholiday": 8537,
      "ĠAmazon": 8538,
      "07": 8539,
      "idal": 8540,
      "ĠDown": 8541,
      "Ġregime": 8542,
      "Ġreasonable": 8543,
      "Ġarguments": 8544,
      "borne": 8545,
      "ĠLaboratory": 8546,
      "ĠDrug": 8547,
      "Ġrequirement": 8548,
      "Ġvitamins": 8549,
      "kind": 8550,
      "Ġlosing": 8551,
      "Ġprivacy": 8552,
      "Ġgods": 8553,
      "Ġpione": 8554,
      "Ġgif": 8555,
      "Ġapplying": 8556,
      "ĠAgain": 8557,
      "Ġexpertise": 8558,
      "67": 8559,
      "CA": 8560,
      "Pr": 8561,
      "Ġcran": 8562,
      "Ġranging": 8563,
      "Ġbehavioral": 8564,
      "Ġcolonies": 8565,
      "Ġ120": 8566,
      "Ġextension": 8567,
      "ĠIslands": 8568,
      "Ġsuicide": 8569,
      "Ġlock": 8570,
      "á¹": 8571,
      "2013": 8572,
      "Ġabstract": 8573,
      "ĠOlymp": 8574,
      "Ġvegetation": 8575,
      "Ġgravity": 8576,
      "Ġcurve": 8577,
      "Ġpersonality": 8578,
      "Ġseriously": 8579,
      "Ġlogic": 8580,
      "onents": 8581,
      "Ġstake": 8582,
      "ĠLast": 8583,
      "Ġscores": 8584,
      "Ġ39": 8585,
      "Ġequality": 8586,
      "Ġsustainability": 8587,
      "Ġqualities": 8588,
      "Ġrecycling": 8589,
      "adelphia": 8590,
      "ĠBack": 8591,
      "Ġtrace": 8592,
      "Ġactively": 8593,
      "ĠTestament": 8594,
      "Com": 8595,
      "fast": 8596,
      "Ġcow": 8597,
      "ĠIraq": 8598,
      "Ġfolk": 8599,
      "Ġcomputing": 8600,
      "Ġmarketing": 8601,
      "Ġviolent": 8602,
      "foot": 8603,
      "lines": 8604,
      "ali": 8605,
      "Ġtelling": 8606,
      "Ġpriority": 8607,
      "EE": 8608,
      "LL": 8609,
      "opher": 8610,
      "Ġwheel": 8611,
      "Ġevident": 8612,
      "Ġherb": 8613,
      "Ġproductivity": 8614,
      "Ġvirtually": 8615,
      "ĠJustice": 8616,
      "Ġtob": 8617,
      "Ġstyles": 8618,
      "Ġsevent": 8619,
      "rix": 8620,
      "Ġtransmitted": 8621,
      "iterranean": 8622,
      "Ġneutral": 8623,
      "Ġmedicines": 8624,
      "Ġfuels": 8625,
      "omers": 8626,
      "Ġassets": 8627,
      "Ġhaven": 8628,
      "Ġspinal": 8629,
      "ĠOs": 8630,
      "Ġlogical": 8631,
      "Ġnutritional": 8632,
      "Ġopinions": 8633,
      "Ġdense": 8634,
      "Ġstones": 8635,
      "Ġintention": 8636,
      "2012": 8637,
      "Ġanalog": 8638,
      "Ġcommittee": 8639,
      "ĠWildlife": 8640,
      "ĠColorado": 8641,
      "Ġborrow": 8642,
      "Ġmyself": 8643,
      "Ġcontinuing": 8644,
      "Ġdescend": 8645,
      "Ġengagement": 8646,
      "Ġoxid": 8647,
      "ĠSurvey": 8648,
      "press": 8649,
      "uity": 8650,
      "ceans": 8651,
      "Ġshore": 8652,
      "riday": 8653,
      "Ġlinear": 8654,
      "ĠHarvard": 8655,
      "Ġuniversities": 8656,
      "Ġapparently": 8657,
      "Ġhunting": 8658,
      "ĠAssess": 8659,
      "Ġtrauma": 8660,
      "Ġassert": 8661,
      "Ġensuring": 8662,
      "Ġcelebrate": 8663,
      "Ġease": 8664,
      "Ġchose": 8665,
      "ĠFred": 8666,
      "ĠEncyclopedia": 8667,
      "operative": 8668,
      "hire": 8669,
      "Ġmigration": 8670,
      "Ġdropped": 8671,
      "Ref": 8672,
      "Ġpill": 8673,
      "ĠCapt": 8674,
      "Ġposts": 8675,
      "Ġrepresentative": 8676,
      "ĠAgriculture": 8677,
      "onal": 8678,
      "orig": 8679,
      "Ġreverse": 8680,
      "pled": 8681,
      "Ġtraits": 8682,
      "Ġwouldn": 8683,
      "Ġforecast": 8684,
      "Ġtransferred": 8685,
      "Each": 8686,
      "Ã±": 8687,
      "Ġpainful": 8688,
      "Ġsafely": 8689,
      "Ġconverted": 8690,
      "fe": 8691,
      "imm": 8692,
      "ĠRight": 8693,
      "aret": 8694,
      "Ġinvention": 8695,
      "Ġremarkable": 8696,
      "Ġaccompanied": 8697,
      "ĠSunday": 8698,
      "mond": 8699,
      "ĠMoses": 8700,
      "Ġspan": 8701,
      "Ġdevelopments": 8702,
      "jo": 8703,
      "Ġmanager": 8704,
      "Ð¾": 8705,
      "Ġcord": 8706,
      "ocated": 8707,
      "ĠFact": 8708,
      "ouses": 8709,
      "Ġcoat": 8710,
      "Ġanticip": 8711,
      "Ġemotion": 8712,
      "was": 8713,
      "erts": 8714,
      "ico": 8715,
      "aware": 8716,
      "Ġ95": 8717,
      "Using": 8718,
      "ĠAff": 8719,
      "ĠPeace": 8720,
      "Ġdefinitely": 8721,
      "flamm": 8722,
      "DS": 8723,
      "disc": 8724,
      "host": 8725,
      "anted": 8726,
      "Ġsentences": 8727,
      "Ġintegration": 8728,
      "Ġownership": 8729,
      "bel": 8730,
      "Ġcul": 8731,
      "Ġmunicip": 8732,
      "Ġchocolate": 8733,
      "Ġ34": 8734,
      "awn": 8735,
      "Ġtransc": 8736,
      "Ġreferences": 8737,
      "Ġcardiovascular": 8738,
      "Ġhypothesis": 8739,
      "arn": 8740,
      "Ġmg": 8741,
      "Ġoccas": 8742,
      "Ġcertific": 8743,
      "ĠMath": 8744,
      "Ġ1940": 8745,
      "Ġrac": 8746,
      "Ġdecay": 8747,
      "Ġcapabilities": 8748,
      "Ġwebsites": 8749,
      "Ġnom": 8750,
      "rue": 8751,
      "Ġremoving": 8752,
      "ĠCE": 8753,
      "ifier": 8754,
      "Ġwars": 8755,
      "Ġalarm": 8756,
      "Who": 8757,
      "Ġjoints": 8758,
      "ĠModel": 8759,
      "Sm": 8760,
      "made": 8761,
      "iano": 8762,
      "Ġindirect": 8763,
      "Ġeleph": 8764,
      "Ġcelebrated": 8765,
      "Ġdominant": 8766,
      "!âĢĿ": 8767,
      "you": 8768,
      "61": 8769,
      "aints": 8770,
      "Ġnoticed": 8771,
      "agnetic": 8772,
      "Ġachievement": 8773,
      "flu": 8774,
      "Ġtobacco": 8775,
      "ĠSS": 8776,
      "Ġreserved": 8777,
      "ĠVe": 8778,
      "Ġaccord": 8779,
      "ĠAsk": 8780,
      "Ġtact": 8781,
      "Ġwelfare": 8782,
      "Ġlibr": 8783,
      "ador": 8784,
      "ivest": 8785,
      "ĠâĢ¢": 8786,
      "Ġspoke": 8787,
      "Ġfats": 8788,
      "Ġmature": 8789,
      "ĠAk": 8790,
      "Ġven": 8791,
      "Ġliterally": 8792,
      "ĠAntar": 8793,
      "icts": 8794,
      "ĠLuc": 8795,
      "Ġrestrictions": 8796,
      "Ġpoetry": 8797,
      "bell": 8798,
      "feed": 8799,
      "Ġpets": 8800,
      "Ġreef": 8801,
      "mented": 8802,
      "Ġsuit": 8803,
      "umer": 8804,
      "ateral": 8805,
      "ĠIndeed": 8806,
      "Ġvictory": 8807,
      "Ġsymbols": 8808,
      "Ġaggressive": 8809,
      "53": 8810,
      "Ġtu": 8811,
      "ati": 8812,
      "Ġwat": 8813,
      "unc": 8814,
      "Ġattribut": 8815,
      "Ġears": 8816,
      "Ġexhibit": 8817,
      "http": 8818,
      "enh": 8819,
      "Ġscope": 8820,
      "Ġsteam": 8821,
      "Just": 8822,
      "Ne": 8823,
      "Ġcontents": 8824,
      "Ġspecified": 8825,
      "Â®": 8826,
      "olk": 8827,
      "raham": 8828,
      "illance": 8829,
      "Ġpermit": 8830,
      "Ġdetermining": 8831,
      "dr": 8832,
      "asy": 8833,
      "Ġreign": 8834,
      "Ġclients": 8835,
      "Ġmetals": 8836,
      "Ġfilms": 8837,
      "Ġmovie": 8838,
      "Ġcalculated": 8839,
      "Ġsoph": 8840,
      "Ġcas": 8841,
      "Ġgent": 8842,
      "ĠDiet": 8843,
      "Ġcooperation": 8844,
      "68": 8845,
      "BM": 8846,
      "Ġstood": 8847,
      "Ġassemb": 8848,
      "ĠStan": 8849,
      "Ġsodium": 8850,
      "Like": 8851,
      "ĠHum": 8852,
      "aven": 8853,
      "berry": 8854,
      "Ġrecre": 8855,
      "Ġpromise": 8856,
      "ĠKorean": 8857,
      "Ġvolunteers": 8858,
      "Despite": 8859,
      "Ge": 8860,
      "OW": 8861,
      "ĠCA": 8862,
      "ĠRail": 8863,
      "Ġunem": 8864,
      "Ġfunded": 8865,
      "Ġprescribed": 8866,
      "MA": 8867,
      "ĠMajor": 8868,
      "ĠBureau": 8869,
      "Ġdiscussions": 8870,
      "regon": 8871,
      "CH": 8872,
      "Ġtone": 8873,
      "Ġconvey": 8874,
      "Ġreflected": 8875,
      "Ġrevenue": 8876,
      "Ġcraft": 8877,
      "ĠInvest": 8878,
      "Ġfeels": 8879,
      "mia": 8880,
      "advant": 8881,
      "Ġcollective": 8882,
      "ĠTurkey": 8883,
      "Sec": 8884,
      "Ġhall": 8885,
      "Ġgast": 8886,
      "ptic": 8887,
      "Ġorigins": 8888,
      "Ġloose": 8889,
      "Ġenjoyed": 8890,
      "Ġelectrons": 8891,
      "Ġbottle": 8892,
      "Ġsessions": 8893,
      "Ġfet": 8894,
      "Ġbuff": 8895,
      "Ġsensors": 8896,
      "Ġrobot": 8897,
      "best": 8898,
      "gien": 8899,
      "Ġcrown": 8900,
      "Ġshorter": 8901,
      "ĠMediterranean": 8902,
      "Sim": 8903,
      "ols": 8904,
      "ĠFDA": 8905,
      "Ġcompos": 8906,
      "Ġclock": 8907,
      "Ġpassion": 8908,
      "CP": 8909,
      "View": 8910,
      "uther": 8911,
      "ĠCT": 8912,
      "ĠFil": 8913,
      "Ġuncle": 8914,
      "Ġresistant": 8915,
      "Ġtack": 8916,
      "ĠNob": 8917,
      "Ġresil": 8918,
      "onday": 8919,
      "Ġecosystems": 8920,
      "ĠJacob": 8921,
      "Os": 8922,
      "ĠâĨĳ": 8923,
      "ospel": 8924,
      "Ġfacilitate": 8925,
      "zymes": 8926,
      "Ġtip": 8927,
      "also": 8928,
      "Ġweigh": 8929,
      "Ġdiffer": 8930,
      "Ġdrinks": 8931,
      "Ġbacterial": 8932,
      "Ġgardens": 8933,
      "Ġunlikely": 8934,
      ".'": 8935,
      "eras": 8936,
      "Ġ(\"": 8937,
      "fulness": 8938,
      "Ġdifferently": 8939,
      "Ġsuspect": 8940,
      "Ġbleeding": 8941,
      "Ġbutterf": 8942,
      "atter": 8943,
      "Ġvaried": 8944,
      "Ġclassic": 8945,
      "Ġengines": 8946,
      "ĠCentury": 8947,
      "nedy": 8948,
      "ĠGreece": 8949,
      "Ġadopt": 8950,
      "eutic": 8951,
      "ĠAction": 8952,
      "Ġspots": 8953,
      "chnology": 8954,
      "Ġpowder": 8955,
      "Ġfrust": 8956,
      "claim": 8957,
      "ĠKey": 8958,
      "Ġsubsid": 8959,
      "ĠDigital": 8960,
      "Rel": 8961,
      "Ġrefused": 8962,
      "Ġpersonnel": 8963,
      "Ġrestaur": 8964,
      "ĠContin": 8965,
      "Ġ38": 8966,
      "Ġlanding": 8967,
      "Ġrealized": 8968,
      "hemistry": 8969,
      "Ġbatteries": 8970,
      "ĠAngeles": 8971,
      "Ġsleeping": 8972,
      "Ġwatching": 8973,
      "ĠTurk": 8974,
      "ĠStandard": 8975,
      "Ġtag": 8976,
      "Ġpel": 8977,
      "ĠMax": 8978,
      "icking": 8979,
      "Ġduration": 8980,
      "ĠCorn": 8981,
      "ĠCreek": 8982,
      "ĠBiology": 8983,
      "Ġassociate": 8984,
      "Ġstrange": 8985,
      "ĠTown": 8986,
      "Ġgate": 8987,
      "Ġgathered": 8988,
      "ĠEPA": 8989,
      "Ġoccupied": 8990,
      "ĠPhiladelphia": 8991,
      "Before": 8992,
      "Ġpace": 8993,
      "Ġunderground": 8994,
      "Ġmodule": 8995,
      "Ġeverywhere": 8996,
      "Ġemerged": 8997,
      "Ġlicense": 8998,
      "ĠBuilding": 8999,
      "Ġcompost": 9000,
      "Ġexploring": 9001,
      "ĠSeveral": 9002,
      "Ġrestore": 9003,
      "ĠSecretary": 9004,
      "asm": 9005,
      "Ġreaches": 9006,
      "ĠField": 9007,
      "Ġbasically": 9008,
      "Ġdevast": 9009,
      "Ġmeaningful": 9010,
      "this": 9011,
      "ogens": 9012,
      "Ġunn": 9013,
      "Ġobst": 9014,
      "OP": 9015,
      "ĠDie": 9016,
      "ĠOffic": 9017,
      "Ġarmed": 9018,
      "orters": 9019,
      "Ġhandling": 9020,
      "Ġirrig": 9021,
      "62": 9022,
      "itting": 9023,
      "Ġsmell": 9024,
      "cin": 9025,
      "Ġpeer": 9026,
      "thew": 9027,
      "Ġencounter": 9028,
      "54": 9029,
      "Ġcotton": 9030,
      "Ġgly": 9031,
      "ĠSpir": 9032,
      "Ġadvances": 9033,
      "ĠÂ©": 9034,
      "EA": 9035,
      "Ġtort": 9036,
      "Ġmira": 9037,
      "Ġhat": 9038,
      "ĠRest": 9039,
      "Then": 9040,
      "Ġbreaking": 9041,
      "Ġinvolvement": 9042,
      "dep": 9043,
      "mail": 9044,
      "issance": 9045,
      "Ġseparation": 9046,
      "ĠPerhaps": 9047,
      "function": 9048,
      "power": 9049,
      "usive": 9050,
      "Ġ48": 9051,
      "2010": 9052,
      "Ġdocumented": 9053,
      "Ġestablishing": 9054,
      "Ġmaxim": 9055,
      "iblical": 9056,
      "'d": 9057,
      "section": 9058,
      "Ġvaries": 9059,
      "Ġcheap": 9060,
      "ĠPhot": 9061,
      "Ġchoosing": 9062,
      "ĠBeing": 9063,
      "Ġlun": 9064,
      "ĠPu": 9065,
      "ĠLog": 9066,
      "outheast": 9067,
      "Ġannually": 9068,
      "ĠIncre": 9069,
      "Ġ(âĢľ": 9070,
      "ĠJr": 9071,
      "Ġrecall": 9072,
      "Ġsurprise": 9073,
      "Ġlighting": 9074,
      "Ġdil": 9075,
      "Ġdict": 9076,
      "Ġdeploy": 9077,
      "ĠHim": 9078,
      "ĠBlue": 9079,
      "Ġpartnership": 9080,
      "Ġreplacement": 9081,
      "quiry": 9082,
      "ivestock": 9083,
      "Ġvot": 9084,
      "ĠRh": 9085,
      "agan": 9086,
      "teb": 9087,
      "Ġdevelops": 9088,
      "Ġdefault": 9089,
      "ippi": 9090,
      "shaped": 9091,
      "Ġburden": 9092,
      "Ġcolonial": 9093,
      "Ġsongs": 9094,
      "obile": 9095,
      "irable": 9096,
      "ĠConfed": 9097,
      "Ġmammals": 9098,
      "Ġjurisd": 9099,
      "EG": 9100,
      "Ġsending": 9101,
      "ĠMess": 9102,
      "mentia": 9103,
      "ĠGDP": 9104,
      "lected": 9105,
      "2009": 9106,
      "Ġshed": 9107,
      "Ġbears": 9108,
      "rip": 9109,
      "ĠCorps": 9110,
      "Ġsuddenly": 9111,
      "Ġrefugees": 9112,
      "actions": 9113,
      "Ġcream": 9114,
      "inois": 9115,
      "ĠElizabeth": 9116,
      "Ġcontrolling": 9117,
      "Ġabsorb": 9118,
      "sub": 9119,
      "ref": 9120,
      "Ġdress": 9121,
      "ĠImpro": 9122,
      "Ġwooden": 9123,
      "ĠHeritage": 9124,
      "Ġtherm": 9125,
      "sem": 9126,
      "Ġestate": 9127,
      "Ġzones": 9128,
      "Ġruled": 9129,
      "Ġpurchased": 9130,
      "Ġfriendly": 9131,
      "ptions": 9132,
      "Ġbuying": 9133,
      "oca": 9134,
      "ĠGall": 9135,
      "Ġcirculation": 9136,
      "Ġmagnitude": 9137,
      "Ġattractive": 9138,
      "ĠTreatment": 9139,
      "Mar": 9140,
      "Source": 9141,
      "box": 9142,
      "Ġcub": 9143,
      "terior": 9144,
      "ĠFair": 9145,
      "Ġdipl": 9146,
      "Ġsalmon": 9147,
      "Ġvillages": 9148,
      "Ġscenario": 9149,
      "havior": 9150,
      "ometer": 9151,
      "ĠJo": 9152,
      "ologically": 9153,
      "Ġgrades": 9154,
      "Ġidentical": 9155,
      "Scient": 9156,
      "pos": 9157,
      "omal": 9158,
      "Ġpreserved": 9159,
      "Ġethical": 9160,
      "98": 9161,
      "ĠMA": 9162,
      "ushing": 9163,
      "uscript": 9164,
      "rub": 9165,
      "ĠChief": 9166,
      "ĠNavy": 9167,
      "Ġpersu": 9168,
      "regular": 9169,
      "Ġpilot": 9170,
      "Ġcodes": 9171,
      "enter": 9172,
      "Ġsees": 9173,
      "izz": 9174,
      "aved": 9175,
      "Ġprovision": 9176,
      "Ġproductive": 9177,
      "ĠCommons": 9178,
      "Ġpaying": 9179,
      "specific": 9180,
      "ĠNutrition": 9181,
      "Ġtelesc": 9182,
      "Ġbonds": 9183,
      "Ġvibr": 9184,
      "Ġdistant": 9185,
      "Ġseasonal": 9186,
      "Ġconversion": 9187,
      "ĠArabic": 9188,
      "di": 9189,
      "vi": 9190,
      "Ġtap": 9191,
      "ĠMid": 9192,
      "ĠBang": 9193,
      "izers": 9194,
      "azz": 9195,
      "Ġfaculty": 9196,
      "MP": 9197,
      "hea": 9198,
      "ĠIce": 9199,
      "opl": 9200,
      "ĠVan": 9201,
      "Ġspacecraft": 9202,
      "Ġrepresenting": 9203,
      "Ġlimitations": 9204,
      "Ġmembrane": 9205,
      "Ġsale": 9206,
      "Ġft": 9207,
      "endar": 9208,
      "Ġprey": 9209,
      "Ġpenal": 9210,
      "Ġcalculate": 9211,
      "Ġol": 9212,
      "Ġdairy": 9213,
      "amic": 9214,
      "ĠMove": 9215,
[...]
